{
  "version": "1.0",
  "truncation": null,
  "padding": null,
  "added_tokens": [
    {
      "id": 0,
      "content": "<|endoftext|>",
      "single_word": false,
      "lstrip": false,
      "rstrip": false,
      "normalized": false,
      "special": true
    },
    {
      "id": 1,
      "content": "<|im_start|>",
      "single_word": false,
      "lstrip": false,
      "rstrip": false,
      "normalized": false,
      "special": true
    },
    {
      "id": 2,
      "content": "<|im_end|>",
      "single_word": false,
      "lstrip": false,
      "rstrip": false,
      "normalized": false,
      "special": true
    },
    {
      "id": 3,
      "content": "<|buffer1|>",
      "single_word": false,
      "lstrip": false,
      "rstrip": false,
      "normalized": false,
      "special": true
    },
    {
      "id": 4,
      "content": "<|buffer2|>",
      "single_word": false,
      "lstrip": false,
      "rstrip": false,
      "normalized": false,
      "special": true
    },
    {
      "id": 5,
      "content": "<|buffer3|>",
      "single_word": false,
      "lstrip": false,
      "rstrip": false,
      "normalized": false,
      "special": true
    },
    {
      "id": 6,
      "content": "<|buffer4|>",
      "single_word": false,
      "lstrip": false,
      "rstrip": false,
      "normalized": false,
      "special": true
    },
    {
      "id": 7,
      "content": "<|buffer5|>",
      "single_word": false,
      "lstrip": false,
      "rstrip": false,
      "normalized": false,
      "special": true
    },
    {
      "id": 8,
      "content": "<|buffer6|>",
      "single_word": false,
      "lstrip": false,
      "rstrip": false,
      "normalized": false,
      "special": true
    },
    {
      "id": 9,
      "content": "<|buffer7|>",
      "single_word": false,
      "lstrip": false,
      "rstrip": false,
      "normalized": false,
      "special": true
    },
    {
      "id": 10,
      "content": "<|buffer8|>",
      "single_word": false,
      "lstrip": false,
      "rstrip": false,
      "normalized": false,
      "special": true
    },
    {
      "id": 11,
      "content": "<|buffer9|>",
      "single_word": false,
      "lstrip": false,
      "rstrip": false,
      "normalized": false,
      "special": true
    },
    {
      "id": 12,
      "content": "<|buffer10|>",
      "single_word": false,
      "lstrip": false,
      "rstrip": false,
      "normalized": false,
      "special": true
    },
    {
      "id": 13,
      "content": "<|buffer11|>",
      "single_word": false,
      "lstrip": false,
      "rstrip": false,
      "normalized": false,
      "special": true
    },
    {
      "id": 14,
      "content": "<|buffer12|>",
      "single_word": false,
      "lstrip": false,
      "rstrip": false,
      "normalized": false,
      "special": true
    },
    {
      "id": 15,
      "content": "<|buffer13|>",
      "single_word": false,
      "lstrip": false,
      "rstrip": false,
      "normalized": false,
      "special": true
    },
    {
      "id": 16,
      "content": "<|buffer14|>",
      "single_word": false,
      "lstrip": false,
      "rstrip": false,
      "normalized": false,
      "special": true
    },
    {
      "id": 17,
      "content": "<|buffer15|>",
      "single_word": false,
      "lstrip": false,
      "rstrip": false,
      "normalized": false,
      "special": true
    },
    {
      "id": 18,
      "content": "<|buffer16|>",
      "single_word": false,
      "lstrip": false,
      "rstrip": false,
      "normalized": false,
      "special": true
    },
    {
      "id": 19,
      "content": "<|buffer17|>",
      "single_word": false,
      "lstrip": false,
      "rstrip": false,
      "normalized": false,
      "special": true
    },
    {
      "id": 20,
      "content": "<|buffer18|>",
      "single_word": false,
      "lstrip": false,
      "rstrip": false,
      "normalized": false,
      "special": true
    },
    {
      "id": 21,
      "content": "<|buffer19|>",
      "single_word": false,
      "lstrip": false,
      "rstrip": false,
      "normalized": false,
      "special": true
    },
    {
      "id": 22,
      "content": "<|buffer20|>",
      "single_word": false,
      "lstrip": false,
      "rstrip": false,
      "normalized": false,
      "special": true
    },
    {
      "id": 23,
      "content": "<|buffer21|>",
      "single_word": false,
      "lstrip": false,
      "rstrip": false,
      "normalized": false,
      "special": true
    },
    {
      "id": 24,
      "content": "<|buffer22|>",
      "single_word": false,
      "lstrip": false,
      "rstrip": false,
      "normalized": false,
      "special": true
    },
    {
      "id": 25,
      "content": "<|buffer23|>",
      "single_word": false,
      "lstrip": false,
      "rstrip": false,
      "normalized": false,
      "special": true
    },
    {
      "id": 26,
      "content": "<|buffer24|>",
      "single_word": false,
      "lstrip": false,
      "rstrip": false,
      "normalized": false,
      "special": true
    },
    {
      "id": 27,
      "content": "<|buffer25|>",
      "single_word": false,
      "lstrip": false,
      "rstrip": false,
      "normalized": false,
      "special": true
    },
    {
      "id": 28,
      "content": "<|buffer26|>",
      "single_word": false,
      "lstrip": false,
      "rstrip": false,
      "normalized": false,
      "special": true
    },
    {
      "id": 29,
      "content": "<|buffer27|>",
      "single_word": false,
      "lstrip": false,
      "rstrip": false,
      "normalized": false,
      "special": true
    },
    {
      "id": 30,
      "content": "<|buffer28|>",
      "single_word": false,
      "lstrip": false,
      "rstrip": false,
      "normalized": false,
      "special": true
    },
    {
      "id": 31,
      "content": "<|buffer29|>",
      "single_word": false,
      "lstrip": false,
      "rstrip": false,
      "normalized": false,
      "special": true
    },
    {
      "id": 32,
      "content": "<|buffer30|>",
      "single_word": false,
      "lstrip": false,
      "rstrip": false,
      "normalized": false,
      "special": true
    },
    {
      "id": 33,
      "content": "<|buffer31|>",
      "single_word": false,
      "lstrip": false,
      "rstrip": false,
      "normalized": false,
      "special": true
    },
    {
      "id": 34,
      "content": "<|buffer32|>",
      "single_word": false,
      "lstrip": false,
      "rstrip": false,
      "normalized": false,
      "special": true
    },
    {
      "id": 35,
      "content": "<|buffer33|>",
      "single_word": false,
      "lstrip": false,
      "rstrip": false,
      "normalized": false,
      "special": true
    }
  ],
  "normalizer": null,
  "pre_tokenizer": {
    "type": "ByteLevel",
    "add_prefix_space": false,
    "trim_offsets": true,
    "use_regex": true
  },
  "post_processor": null,
  "decoder": {
    "type": "ByteLevel",
    "add_prefix_space": true,
    "trim_offsets": true,
    "use_regex": true
  },
  "model": {
    "type": "BPE",
    "dropout": null,
    "unk_token": null,
    "continuing_subword_prefix": null,
    "end_of_word_suffix": null,
    "fuse_unk": false,
    "byte_fallback": false,
    "ignore_merges": false,
    "vocab": {
      "<|endoftext|>": 0,
      "<|im_start|>": 1,
      "<|im_end|>": 2,
      "<|buffer1|>": 3,
      "<|buffer2|>": 4,
      "<|buffer3|>": 5,
      "<|buffer4|>": 6,
      "<|buffer5|>": 7,
      "<|buffer6|>": 8,
      "<|buffer7|>": 9,
      "<|buffer8|>": 10,
      "<|buffer9|>": 11,
      "<|buffer10|>": 12,
      "<|buffer11|>": 13,
      "<|buffer12|>": 14,
      "<|buffer13|>": 15,
      "<|buffer14|>": 16,
      "<|buffer15|>": 17,
      "<|buffer16|>": 18,
      "<|buffer17|>": 19,
      "<|buffer18|>": 20,
      "<|buffer19|>": 21,
      "<|buffer20|>": 22,
      "<|buffer21|>": 23,
      "<|buffer22|>": 24,
      "<|buffer23|>": 25,
      "<|buffer24|>": 26,
      "<|buffer25|>": 27,
      "<|buffer26|>": 28,
      "<|buffer27|>": 29,
      "<|buffer28|>": 30,
      "<|buffer29|>": 31,
      "<|buffer30|>": 32,
      "<|buffer31|>": 33,
      "<|buffer32|>": 34,
      "<|buffer33|>": 35,
      "!": 36,
      "\"": 37,
      "#": 38,
      "$": 39,
      "%": 40,
      "&": 41,
      "'": 42,
      "(": 43,
      ")": 44,
      "*": 45,
      "+": 46,
      ",": 47,
      "-": 48,
      ".": 49,
      "/": 50,
      "0": 51,
      "1": 52,
      "2": 53,
      "3": 54,
      "4": 55,
      "5": 56,
      "6": 57,
      "7": 58,
      "8": 59,
      "9": 60,
      ":": 61,
      ";": 62,
      "<": 63,
      "=": 64,
      ">": 65,
      "?": 66,
      "@": 67,
      "A": 68,
      "B": 69,
      "C": 70,
      "D": 71,
      "E": 72,
      "F": 73,
      "G": 74,
      "H": 75,
      "I": 76,
      "J": 77,
      "K": 78,
      "L": 79,
      "M": 80,
      "N": 81,
      "O": 82,
      "P": 83,
      "Q": 84,
      "R": 85,
      "S": 86,
      "T": 87,
      "U": 88,
      "V": 89,
      "W": 90,
      "X": 91,
      "Y": 92,
      "Z": 93,
      "[": 94,
      "\\": 95,
      "]": 96,
      "^": 97,
      "_": 98,
      "`": 99,
      "a": 100,
      "b": 101,
      "c": 102,
      "d": 103,
      "e": 104,
      "f": 105,
      "g": 106,
      "h": 107,
      "i": 108,
      "j": 109,
      "k": 110,
      "l": 111,
      "m": 112,
      "n": 113,
      "o": 114,
      "p": 115,
      "q": 116,
      "r": 117,
      "s": 118,
      "t": 119,
      "u": 120,
      "v": 121,
      "w": 122,
      "x": 123,
      "y": 124,
      "z": 125,
      "{": 126,
      "|": 127,
      "}": 128,
      "~": 129,
      "¡": 130,
      "¢": 131,
      "£": 132,
      "¤": 133,
      "¥": 134,
      "¦": 135,
      "§": 136,
      "¨": 137,
      "©": 138,
      "ª": 139,
      "«": 140,
      "¬": 141,
      "®": 142,
      "¯": 143,
      "°": 144,
      "±": 145,
      "²": 146,
      "³": 147,
      "´": 148,
      "µ": 149,
      "¶": 150,
      "·": 151,
      "¸": 152,
      "¹": 153,
      "º": 154,
      "»": 155,
      "¼": 156,
      "½": 157,
      "¾": 158,
      "¿": 159,
      "À": 160,
      "Á": 161,
      "Â": 162,
      "Ã": 163,
      "Ä": 164,
      "Å": 165,
      "Æ": 166,
      "Ç": 167,
      "È": 168,
      "É": 169,
      "Ê": 170,
      "Ë": 171,
      "Ì": 172,
      "Í": 173,
      "Î": 174,
      "Ï": 175,
      "Ð": 176,
      "Ñ": 177,
      "Ò": 178,
      "Ó": 179,
      "Ô": 180,
      "Õ": 181,
      "Ö": 182,
      "×": 183,
      "Ø": 184,
      "Ù": 185,
      "Ú": 186,
      "Û": 187,
      "Ü": 188,
      "Ý": 189,
      "Þ": 190,
      "ß": 191,
      "à": 192,
      "á": 193,
      "â": 194,
      "ã": 195,
      "ä": 196,
      "å": 197,
      "æ": 198,
      "ç": 199,
      "è": 200,
      "é": 201,
      "ê": 202,
      "ë": 203,
      "ì": 204,
      "í": 205,
      "î": 206,
      "ï": 207,
      "ð": 208,
      "ñ": 209,
      "ò": 210,
      "ó": 211,
      "ô": 212,
      "õ": 213,
      "ö": 214,
      "÷": 215,
      "ø": 216,
      "ù": 217,
      "ú": 218,
      "û": 219,
      "ü": 220,
      "ý": 221,
      "þ": 222,
      "ÿ": 223,
      "Ā": 224,
      "ā": 225,
      "Ă": 226,
      "ă": 227,
      "Ą": 228,
      "ą": 229,
      "Ć": 230,
      "ć": 231,
      "Ĉ": 232,
      "ĉ": 233,
      "Ċ": 234,
      "ċ": 235,
      "Č": 236,
      "č": 237,
      "Ď": 238,
      "ď": 239,
      "Đ": 240,
      "đ": 241,
      "Ē": 242,
      "ē": 243,
      "Ĕ": 244,
      "ĕ": 245,
      "Ė": 246,
      "ė": 247,
      "Ę": 248,
      "ę": 249,
      "Ě": 250,
      "ě": 251,
      "Ĝ": 252,
      "ĝ": 253,
      "Ğ": 254,
      "ğ": 255,
      "Ġ": 256,
      "ġ": 257,
      "Ģ": 258,
      "ģ": 259,
      "Ĥ": 260,
      "ĥ": 261,
      "Ħ": 262,
      "ħ": 263,
      "Ĩ": 264,
      "ĩ": 265,
      "Ī": 266,
      "ī": 267,
      "Ĭ": 268,
      "ĭ": 269,
      "Į": 270,
      "į": 271,
      "İ": 272,
      "ı": 273,
      "Ĳ": 274,
      "ĳ": 275,
      "Ĵ": 276,
      "ĵ": 277,
      "Ķ": 278,
      "ķ": 279,
      "ĸ": 280,
      "Ĺ": 281,
      "ĺ": 282,
      "Ļ": 283,
      "ļ": 284,
      "Ľ": 285,
      "ľ": 286,
      "Ŀ": 287,
      "ŀ": 288,
      "Ł": 289,
      "ł": 290,
      "Ń": 291,
      "á»": 292,
      "áº": 293,
      "ng": 294,
      "Ġt": 295,
      "Ġc": 296,
      "Ãł": 297,
      "Ġv": 298,
      "nh": 299,
      "ĠÄ": 300,
      "Ã¡": 301,
      "ĠÄĳ": 302,
      "Ã´": 303,
      "Ã´ng": 304,
      "iá»": 305,
      "ĠC": 306,
      "há»": 307,
      "Ġtr": 308,
      "Ġl": 309,
      "Æ°": 310,
      "ĠT": 311,
      "Ġd": 312,
      "Ġp": 313,
      "áº£": 314,
      "áº¡": 315,
      "iá»ĩ": 316,
      "ĠvÃł": 317,
      "Ġh": 318,
      "Ġph": 319,
      "áº¥": 320,
      "Ġk": 321,
      "Ġs": 322,
      "Ġth": 323,
      "Ġvá»": 324,
      "Ġch": 325,
      "Ġty": 326,
      "á»Ļ": 327,
      "Ã¡c": 328,
      "áº¿": 329,
      "Ġm": 330,
      "Ġng": 331,
      "ĠN": 332,
      "Æ°á»": 333,
      "áº§": 334,
      "ĠCÃ´ng": 335,
      "Ãª": 336,
      "Ġb": 337,
      "Ġg": 338,
      "Ġdá»": 339,
      "áº£n": 340,
      "Ã¢": 341,
      "Ġnh": 342,
      "Ġkh": 343,
      "áºŃ": 344,
      "ch": 345,
      "ĠcÃ¡c": 346,
      "ĠcÃ´ng": 347,
      "áº¥t": 348,
      "ĠH": 349,
      "Ġn": 350,
      "ÃŃ": 351,
      "Ãªn": 352,
      "Ġx": 353,
      "ĠÄĳá»Ļ": 354,
      "ung": 355,
      "áº¡i": 356,
      "ĠV": 357,
      "±c": 358,
      "Ġgi": 359,
      "uy": 360,
      "ĠÄĳá»Ļng": 361,
      "Ġthá»": 362,
      "ong": 363,
      "á»ķ": 364,
      "Ġsáº£n": 365,
      "Æ¡": 366,
      "ĭch": 367,
      "inh": 368,
      "áº©": 369,
      "Ġtrong": 370,
      "áº¡t": 371,
      "áº§n": 372,
      "ĠS": 373,
      "Äĥ": 374,
      "Ġhá»": 375,
      "Ġngh": 376,
      "Ġho": 377,
      "iá»ĩn": 378,
      "áº¥p": 379,
      "Ã³": 380,
      "Ġq": 381,
      "Ġnghiá»ĩ": 382,
      "ĠM": 383,
      "Ġtá»": 384,
      "ao": 385,
      "Ġcáº¥p": 386,
      "ĠP": 387,
      "Ġvá»¥": 388,
      "Ġvá»±c": 389,
      "Ġ\"": 390,
      "anh": 391,
      "\",": 392,
      "Ġhoáº¡t": 393,
      "uáº¥t": 394,
      "NG": 395,
      "Æ°á»£": 396,
      "Ġpháº§n": 397,
      "NH": 398,
      "Ä©": 399,
      "iáº¿": 400,
      "am": 401,
      "Ľi": 402,
      "Ä©nh": 403,
      "áº§u": 404,
      "Ġqu": 405,
      "ĠÄĲ": 406,
      "Ġnghiá»ĩp": 407,
      "áº£i": 408,
      "á»ĳ": 409,
      "á»ĵ": 410,
      "ĠB": 411,
      "ĠlÄ©nh": 412,
      "ĠhÃł": 413,
      "ĠTNH": 414,
      "ĠTNHH": 415,
      "ĠphÃ¡": 416,
      "áº©m": 417,
      "Ã¢n": 418,
      "Ġdá»ĭch": 419,
      "oanh": 420,
      "Ġpháº©m": 421,
      "ĠD": 422,
      "áºŃp": 423,
      "ĥn": 424,
      "Ġdoanh": 425,
      "Ġtáº¡i": 426,
      "Ġxuáº¥t": 427,
      "Ã¬": 428,
      "Ġcá»": 429,
      "ÃĶ": 430,
      "Ġcung": 431,
      "ĠlÃł": 432,
      "ÃŃnh": 433,
      "ĠL": 434,
      "ÃĶNG": 435,
      "Ġtrá»": 436,
      "in": 437,
      "Ã¢y": 438,
      "ĠG": 439,
      "ĠhÃłng": 440,
      "Æ°Æ¡": 441,
      "ĠCá»ķ": 442,
      "Ãłnh": 443,
      "Ġchuy": 444,
      "Ġdá»±": 445,
      "Æ°Æ¡ng": 446,
      "Æ°á»Ŀ": 447,
      "an": 448,
      "Ġ(": 449,
      "Ã¬nh": 450,
      "iá»ĩt": 451,
      "ĠchÃŃnh": 452,
      "ĠTY": 453,
      "00": 454,
      "Ġphá»": 455,
      "ĠNam": 456,
      "ģn": 457,
      "CÃĶNG": 458,
      "Æ°á»£c": 459,
      "ĠA": 460,
      "iá»ĩu": 461,
      "Ġnghá»": 462,
      "Ã¡n": 463,
      "ĠnÄĥ": 464,
      "Ġvá»Ľi": 465,
      "©ng": 466,
      "ĠÂ": 467,
      "Ġcá»§": 468,
      "ĠÂ·": 469,
      "iá»ĥn": 470,
      "ĠTh": 471,
      "Ġcá»§a": 472,
      "ĠtÆ°": 473,
      "Ġcho": 474,
      "Ġlá»": 475,
      "Ġsá»": 476,
      "Ġnghá»ĩ": 477,
      "Ġchá»": 478,
      "Ãłn": 479,
      "ĠViá»ĩt": 480,
      "Æ°á»Ŀng": 481,
      "ang": 482,
      "ĠK": 483,
      "ĠCh": 484,
      "ĠphÃ¡p": 485,
      "ĠthÃ´ng": 486,
      "iáº¿t": 487,
      "ĠÄĳiá»ĩn": 488,
      "iÃªn": 489,
      "áºŃn": 490,
      "á»Ļi": 491,
      "á»ĭ": 492,
      "áº¿n": 493,
      "Ġkinh": 494,
      "Ġtriá»ĥn": 495,
      "ĠchuyÃªn": 496,
      "Ġ2": 497,
      "Æ°á»Ľ": 498,
      "Ġgiáº£i": 499,
      "Ġdá»±ng": 500,
      "Ġdá»¥": 501,
      "Ã²": 502,
      "áºŃt": 503,
      "ai": 504,
      "Ġ1": 505,
      "Ġtá»«": 506,
      "©c": 507,
      "Ã½": 508,
      "Ġmá»": 509,
      "ĠÄĳÆ°á»£c": 510,
      "Ã¡ch": 511,
      "ĠPh": 512,
      "ĠvÃło": 513,
      "ĠHÃł": 514,
      "áº¯": 515,
      "er": 516,
      "á»ĳc": 517,
      "on": 518,
      "Ġthu": 519,
      "Ġ[": 520,
      "Ã¡y": 521,
      "Æ°á»£ng": 522,
      "ĠlÃ½": 523,
      "Ãº": 524,
      "Ġthá»ĭ": 525,
      "ĠtáºŃp": 526,
      "ĠtrÃªn": 527,
      "ĠnÄĥm": 528,
      "Ãłi": 529,
      "Æ°á»Ľc": 530,
      "Ã£": 531,
      "á»ģn": 532,
      "ĠphÃ¡t": 533,
      "ĠX": 534,
      "ĠthÃłnh": 535,
      "Ġá»": 536,
      "ĠcÃ³": 537,
      "Æ¡n": 538,
      "ĠTr": 539,
      "Ġr": 540,
      "ĠxÃ¢y": 541,
      "\"]": 542,
      "Ġthiáº¿t": 543,
      "ĠlÆ°á»£ng": 544,
      "áº£ng": 545,
      "Ġkho": 546,
      "Ġcao": 547,
      "Ġ[\"": 548,
      "Ġkáº¿": 549,
      "Ġtrung": 550,
      "ĠmÃ¡y": 551,
      "áº¡o": 552,
      "áº¥n": 553,
      "ĠnhÃł": 554,
      "oÃłn": 555,
      "ĠNá»Ļi": 556,
      "ĠtrÆ°á»Ŀng": 557,
      "Ġdá»¥ng": 558,
      "ĠÄĳáº¿n": 559,
      "ĠÄĳáº§u": 560,
      "Ġphá»ĳ": 561,
      "ĠnhÆ°": 562,
      "ti": 563,
      "ĠtrÃ¬nh": 564,
      "iÃª": 565,
      "ĠQ": 566,
      "ĠkhÃ¡ch": 567,
      "ĠMinh": 568,
      "áº£o": 569,
      "ĠDá»": 570,
      "ĠnÆ°á»Ľc": 571,
      "ĠHá»ĵ": 572,
      "Ã¹": 573,
      "Ã³a": 574,
      "ĠNg": 575,
      "Ġtáº¡o": 576,
      "Ġ-": 577,
      "Ġy": 578,
      "ĠChÃŃ": 579,
      "áº·": 580,
      "ĳng": 581,
      "Ġmáº¡i": 582,
      "Ġcháº¥t": 583,
      "ĠthÆ°Æ¡ng": 584,
      "Ġgia": 585,
      "ar": 586,
      "įc": 587,
      "á»Ĩ": 588,
      "ĠPH": 589,
      "¥c": 590,
      "iáº¿n": 591,
      "Ġhá»ĩ": 592,
      "Ã¡o": 593,
      "ĠGi": 594,
      "en": 595,
      "Ġá»©ng": 596,
      "Ã¹ng": 597,
      "Ġbao": 598,
      "Ġtáº¿": 599,
      "ĠNh": 600,
      "á»Ļt": 601,
      "Äĥng": 602,
      "CÃ´ng": 603,
      "Ġcáº§u": 604,
      "Ġliá»ĩu": 605,
      "á»ķng": 606,
      "Ġtin": 607,
      "ĠQu": 608,
      "ĠTP": 609,
      "ĠhÃ³a": 610,
      "á»ĵng": 611,
      "áº©u": 612,
      "Ġthá»ĳng": 613,
      "es": 614,
      "iá»ĩc": 615,
      "al": 616,
      "Ã¡t": 617,
      "Ġhiá»ĩu": 618,
      "ĠSáº£n": 619,
      "Ġbá»ĭ": 620,
      "ay": 621,
      "Ġviá»ĩc": 622,
      "Ġkháº©u": 623,
      "iá»ģn": 624,
      "Ġtrá»£": 625,
      "ĠÃ¡n": 626,
      "ĠI": 627,
      "ĠphÃ¢n": 628,
      "ĠVá»": 629,
      "Ġquáº£n": 630,
      "Ġgiao": 631,
      "Ġgá»ĵ": 632,
      "ĠE": 633,
      "Ġsá»Ł": 634,
      "ĠváºŃn": 635,
      "Ġgá»ĵm": 636,
      "or": 637,
      "Ġsá»ĳ": 638,
      "Ġhá»įc": 639,
      "ĠCung": 640,
      "iá»ģ": 641,
      "áº¦": 642,
      "£p": 643,
      "Ġváº¥n": 644,
      "Ġphá»ĳi": 645,
      "Ġkhu": 646,
      "te": 647,
      "Ã¡ng": 648,
      "Ġbáº£o": 649,
      "Ġhá»Ĺ": 650,
      "á»¹": 651,
      "01": 652,
      "á»ĥn": 653,
      "ĠVI": 654,
      "iá»ģu": 655,
      "ĠCá»": 656,
      "ĠnÄĥng": 657,
      "iÃªu": 658,
      "Ã¡p": 659,
      "Ġmá»Ļt": 660,
      "áº¡ng": 661,
      "Ġhá»£p": 662,
      "ĠláºŃp": 663,
      "is": 664,
      "Ã²ng": 665,
      "ãģ": 666,
      "ĠngÃłnh": 667,
      "ĠmÃ´": 668,
      "Ġquá»ĳc": 669,
      "AM": 670,
      "Ġnhá»": 671,
      "Ġthá»©c": 672,
      "Ġcá»ķ": 673,
      "ĠhÃłnh": 674,
      "Ġlo": 675,
      "ĠtoÃłn": 676,
      "ĠKh": 677,
      "Ġhiá»ĩn": 678,
      "Äĥm": 679,
      "iá»ĥ": 680,
      "ĠF": 681,
      "Ã©": 682,
      "ĠTH": 683,
      "ĠÄĳa": 684,
      "ro": 685,
      "ãĢ": 686,
      "Ãły": 687,
      "§y": 688,
      "Ġyáº¿": 689,
      "ĠtiÃªu": 690,
      "Ġthá»±c": 691,
      "et": 692,
      "Ġchá»§": 693,
      "¯ng": 694,
      "Ãło": 695,
      "Ġtá»Ń": 696,
      "Ġnhu": 697,
      "Ġphá»¥c": 698,
      "áº¦N": 699,
      "Ãģ": 700,
      "ãĥ": 701,
      "áº·t": 702,
      "ĠPHáº¦N": 703,
      "ÃŃch": 704,
      "Ã¡i": 705,
      "á»ĩ": 706,
      "ĠÄĳá»ĭ": 707,
      "ĠDá»ĭch": 708,
      "ĠU": 709,
      "ĠCá»Ķ": 710,
      "Ġ3": 711,
      "uyá»ģn": 712,
      "CO": 713,
      "ĠnhÃ¢n": 714,
      "áº¯p": 715,
      "Ġchuyá»ĥn": 716,
      "Ġ&": 717,
      "Ã¢m": 718,
      "eo": 719,
      "ĠR": 720,
      "ĠkhÃŃ": 721,
      "em": 722,
      "ĠHo": 723,
      "Æ¯": 724,
      "000": 725,
      "Ġtáº£i": 726,
      "á»ĳi": 727,
      "ia": 728,
      "uyÃªn": 729,
      "Ŀi": 730,
      "Ġvá»ĭ": 731,
      "ÃĢ": 732,
      "áº¡ch": 733,
      "ĠváºŃt": 734,
      "th": 735,
      "Æ°u": 736,
      "Ġlá»ĭch": 737,
      "Äĥn": 738,
      "Ġlá»Ľ": 739,
      "ĠThá»": 740,
      "ĠÄĳÃ£": 741,
      "ĠÄĳáº¡i": 742,
      "ĠÄĳá»": 743,
      "Ġbáº¥t": 744,
      "Ġ200": 745,
      "ä¸": 746,
      "ĠkhoÃ¡n": 747,
      "Ġlá»Ľn": 748,
      "iá»ĥm": 749,
      "ĠÄĲáº§u": 750,
      "Ġnhiá»ģu": 751,
      "ãĤ": 752,
      "ĠhÃ¬nh": 753,
      "Ġsuáº¥t": 754,
      "ģm": 755,
      "ĠcÆ¡": 756,
      "ing": 757,
      "īnh": 758,
      "Ġmá»ģm": 759,
      "á»ĨT": 760,
      "Ġmang": 761,
      "ï¼": 762,
      "ic": 763,
      "CH": 764,
      "Ġtá»ķng": 765,
      "Ġnghiá»ĩm": 766,
      "Æ°á»Ŀi": 767,
      "Ġcháº¿": 768,
      "ĠVá»Ľi": 769,
      "ĠNAM": 770,
      "á»Ļng": 771,
      "á»ķi": 772,
      "Ġvá»ģ": 773,
      "Ġtrá»±c": 774,
      "ĠÄĳoÃłn": 775,
      "Ã²n": 776,
      "Ġkáº¿t": 777,
      "Ã¢u": 778,
      "âĢ": 779,
      "áº¡n": 780,
      "Ġquan": 781,
      "ĠngÆ°á»Ŀi": 782,
      "ol": 783,
      "Ġkhai": 784,
      "ĠXÃ¢y": 785,
      "im": 786,
      "Ġbiáº¿n": 787,
      "ac": 788,
      "ĠtÃłi": 789,
      "áº±": 790,
      "Ġloáº¡i": 791,
      "Ġtuy": 792,
      "ou": 793,
      "Ġthá»§y": 794,
      "om": 795,
      "ĠÄĳá»ĵng": 796,
      "Ġdáº¡ng": 797,
      "ĠkhÃ´ng": 798,
      "ĠThÆ°Æ¡ng": 799,
      "Ġsá»±": 800,
      "áº¯c": 801,
      "Ġtheo": 802,
      "it": 803,
      "Ġdá»¥c": 804,
      "ĠÄĳÆ¡n": 805,
      "ãĢģ": 806,
      "ĠthÃ¢n": 807,
      "ĠviÃªn": 808,
      "Ã©p": 809,
      "ĠVIá»ĨT": 810,
      "ĠhÆ¡n": 811,
      "ĠSá»": 812,
      "Ġdáº§u": 813,
      "Ġdu": 814,
      "Ġgiá»": 815,
      "ĠBÃ¬nh": 816,
      "Ġtáº§": 817,
      "ĠliÃªn": 818,
      "as": 819,
      "Ġthi": 820,
      "ĠO": 821,
      "el": 822,
      "oÃłi": 823,
      "ĠQuá»ĳc": 824,
      "Ġláº¯p": 825,
      "eb": 826,
      "Ġ0": 827,
      "ĠgiÃ¡": 828,
      "Å©ng": 829,
      "Ġsinh": 830,
      "Ġkiá»ĩn": 831,
      "Ġtiá»ģn": 832,
      "ĠW": 833,
      "Ġtá»īnh": 834,
      "ĠNhÃł": 835,
      "Ġdiá»ĩn": 836,
      "ĠdÃ¹ng": 837,
      "ĠAn": 838,
      "Ġquáº£": 839,
      "Ġnhá»¯ng": 840,
      "Ġqua": 841,
      "ĠbÃ¡n": 842,
      "ĠnháºŃp": 843,
      "ĠtÃŃch": 844,
      "ĠCÃĶNG": 845,
      "ĠthuáºŃt": 846,
      "áº£m": 847,
      "ĠTrung": 848,
      "ĠtÃ¡c": 849,
      "Ã´i": 850,
      "ĠPhÃ¡t": 851,
      "Ġra": 852,
      "ĠNG": 853,
      "Ġtá»ĳ": 854,
      "ĠChá»": 855,
      "ï¼Į": 856,
      "Ġtáº§ng": 857,
      "Ã³c": 858,
      "ĠY": 859,
      "Ġ5": 860,
      "Ãłu": 861,
      "Ġ19": 862,
      "áº»": 863,
      "Ġtrá»¥": 864,
      "Ńa": 865,
      "tic": 866,
      "Ġtáº£ng": 867,
      "Ġná»Ļi": 868,
      "Ã³ng": 869,
      "ĠdÃ¢n": 870,
      "Ġquy": 871,
      "ĠÄĳÃ¡p": 872,
      "ĠÄĳÆ°á»Ŀng": 873,
      "Ġtham": 874,
      "Ġká»¹": 875,
      "Ġtiáº¿": 876,
      "áºł": 877,
      "ph": 878,
      "Ġchu": 879,
      "á»Ĺ": 880,
      "Ġw": 881,
      "Ġlá»±c": 882,
      "Ġyáº¿u": 883,
      "Ġtuyáº¿n": 884,
      "ĠCÃ¡c": 885,
      "ĠphÃ²ng": 886,
      "¯u": 887,
      "ail": 888,
      "ĠtrÃŃ": 889,
      "Ġhá»Ļ": 890,
      "tion": 891,
      "ĠthÃ¡c": 892,
      "á»Ļc": 893,
      "áº¡nh": 894,
      "ĠNinh": 895,
      "ħn": 896,
      "ĠThÃłnh": 897,
      "ĠgiÃ¡o": 898,
      "ĠkhÃ¡c": 899,
      "Ġan": 900,
      "ĠÄĳá»ķi": 901,
      "ĠâĢ": 902,
      "ĠÄĲÃł": 903,
      "Ġná»ģn": 904,
      "iÃªm": 905,
      "Ã¡nh": 906,
      "ĠTR": 907,
      "Æ°á»Ľng": 908,
      "ĠAI": 909,
      "Ġ201": 910,
      "ĠÄĳá»ĭa": 911,
      "),": 912,
      "Ġxe": 913,
      "Ġhá»¯u": 914,
      "ĠBáº¯c": 915,
      "ĠTá»ķng": 916,
      "ĠUP": 917,
      "COM": 918,
      "le": 919,
      "ĠÄĲá»ĵng": 920,
      "ĠÄĳÃło": 921,
      "Ġ4": 922,
      "ĠTáºŃp": 923,
      "ĠcÃ¹ng": 924,
      "ĠcÅ©ng": 925,
      "£i": 926,
      "tics": 927,
      "Ãºp": 928,
      "ĠChá»©ng": 929,
      "Ġchá»©c": 930,
      "áº¢": 931,
      "Ġtrá»į": 932,
      "ĠhÆ°á»Ľng": 933,
      "Ġtruyá»ģn": 934,
      "Ãºc": 935,
      "re": 936,
      "iá»ħn": 937,
      "ĠgiÃºp": 938,
      "åħ": 939,
      "gis": 940,
      "ÃĤ": 941,
      "us": 942,
      "ĠtÃ¢m": 943,
      "201": 944,
      "Ġin": 945,
      "Äĳ": 946,
      "Ġthá»Ŀi": 947,
      "..": 948,
      "ĠHáº£i": 949,
      "ER": 950,
      "Ġtrang": 951,
      "ĠNGH": 952,
      "ent": 953,
      "Ġcáº£": 954,
      "gistics": 955,
      "Ġyáº¿t": 956,
      "Ġtáº¥n": 957,
      "ĠniÃªm": 958,
      "à¸": 959,
      "ĠcÃ²n": 960,
      "ĠÄĳá»ĥ": 961,
      "au": 962,
      "Ġem": 963,
      "æľ": 964,
      "lo": 965,
      "ĠâĢĵ": 966,
      "ĠnÃ´ng": 967,
      "áº·c": 968,
      "±a": 969,
      "ĠÄĳáº·t": 970,
      "Ġchá»©ng": 971,
      "ĠSá»Ł": 972,
      "ĠUPCOM": 973,
      "áº©n": 974,
      "Æł": 975,
      "ON": 976,
      "SE": 977,
      "nÄĥm": 978,
      "åı": 979,
      "Ġháº¡": 980,
      "¯a": 981,
      "áºµ": 982,
      "at": 983,
      "ĠÄĳá»ĭnh": 984,
      "si": 985,
      "Å©": 986,
      "Ġrá»Ļng": 987,
      "ĠcÃ¡": 988,
      "Ãłng": 989,
      "ĠGiao": 990,
      "Ġgiá»Ľi": 991,
      "ĠVi": 992,
      "Ġto": 993,
      "up": 994,
      "ĠlÃłm": 995,
      "Ã²a": 996,
      "Ġtá»±": 997,
      "NT": 998,
      "Ã¢ng": 999,
      "ĠmÃ´i": 1000,
      "sáº£n": 1001,
      "ĠthÃ¡ng": 1002,
      "TI": 1003,
      "Ġweb": 1004,
      "ig": 1005,
      "Ġì": 1006,
      "ĠnÃ¢ng": 1007,
      "Æ°á»Ł": 1008,
      "ting": 1009,
      "ap": 1010,
      "Ġthá»ĥ": 1011,
      "Ġsáº¡n": 1012,
      "Ã£i": 1013,
      "ĠÆ°u": 1014,
      "ĠtÃ´": 1015,
      "Ġtrá»ĭ": 1016,
      "tr": 1017,
      "Ġtá»ķ": 1018,
      "Æ°á»Łng": 1019,
      "äº": 1020,
      "20": 1021,
      "á»ĳng": 1022,
      "ĠÄĳáº¡t": 1023,
      "ĠgÃ³": 1024,
      "Ġá»Ł": 1025,
      "ĠvÄĥn": 1026,
      "AN": 1027,
      "cÃ´ng": 1028,
      "Ġnháº¥t": 1029,
      "Ġchuáº©n": 1030,
      "á»ĭch": 1031,
      "áºµng": 1032,
      "Ġphá»¥": 1033,
      "ĠNáºµng": 1034,
      "Ġsang": 1035,
      "ĠÄĳang": 1036,
      "ĠVÃĢ": 1037,
      "ĠÄĲÃ´ng": 1038,
      "ĠphÃŃ": 1039,
      "Ġkhá»": 1040,
      "Ġmáº·t": 1041,
      "Ġthuá»Ļc": 1042,
      "Ġminh": 1043,
      "ET": 1044,
      "ad": 1045,
      "ĠGI": 1046,
      "il": 1047,
      "oo": 1048,
      "ec": 1049,
      "ĠthuÃª": 1050,
      "ĠHá»": 1051,
      "ĠthÃ©p": 1052,
      "ĠIn": 1053,
      "ĠMá»¹": 1054,
      "áº±ng": 1055,
      "Ġvá»¯ng": 1056,
      ").": 1057,
      "ä»": 1058,
      "AR": 1059,
      "ĠÄĳÃ´": 1060,
      "gi": 1061,
      "ĠÃģ": 1062,
      "ĠQuáº£ng": 1063,
      "Æ¯Æł": 1064,
      "ĠtÃŃnh": 1065,
      "áºłI": 1066,
      "Æ¯ÆłNG": 1067,
      "ĠLong": 1068,
      "Ġtá»ĳi": 1069,
      "Æ¡i": 1070,
      "HO": 1071,
      "áº¤": 1072,
      "Æ°á»Ľi": 1073,
      "IN": 1074,
      "ĠÄĳáº£m": 1075,
      "Ġtrá»įng": 1076,
      "Ġtháº¿": 1077,
      "Ã´n": 1078,
      "Ġbá»ģn": 1079,
      "á»ĵn": 1080,
      "ĠThÃ¡i": 1081,
      "åĬ": 1082,
      "ĠPhÃ²ng": 1083,
      "Ġdi": 1084,
      "á»Ń": 1085,
      "Ġsá»©c": 1086,
      "Ġmiá»ģn": 1087,
      "ĠtiÃªn": 1088,
      "áº¥y": 1089,
      "áº±m": 1090,
      "áº¡m": 1091,
      "iáº¿m": 1092,
      "ĠPhÃº": 1093,
      "Ġhá»Ļi": 1094,
      "ĠNGHá»Ĩ": 1095,
      "Ġlá»£i": 1096,
      "ĠNháºŃt": 1097,
      "áº«": 1098,
      "ĠdÃ¢y": 1099,
      "ĠdÆ°á»£c": 1100,
      "å¤": 1101,
      "ĠngoÃłi": 1102,
      "Ġemail": 1103,
      "ĠnguyÃªn": 1104,
      "ed": 1105,
      "ĠJ": 1106,
      "Ġtu": 1107,
      "ĠnháºŃn": 1108,
      "ĠsÃ³c": 1109,
      "Ġchi": 1110,
      "ÃŃn": 1111,
      "id": 1112,
      "Ġmay": 1113,
      "ĠngÃły": 1114,
      "Iá»Ĩ": 1115,
      "Ġtriá»ĩu": 1116,
      "ĠSÆ¡n": 1117,
      "ĠÄĲá»": 1118,
      "ĠsÃ¡ng": 1119,
      "ĠÄĳá»Ļi": 1120,
      "Ġ10": 1121,
      "our": 1122,
      "Ġmá»Ľi": 1123,
      "ĠÄĳÃ¡": 1124,
      "Ġmáº¡ng": 1125,
      "dá»ĭch": 1126,
      "ĠÄĳá»ĵ": 1127,
      "ĠTÃ¢y": 1128,
      "áº¹": 1129,
      "ua": 1130,
      "ĠBáº£n": 1131,
      "Ġ6": 1132,
      "ĬCH": 1133,
      "Ġbiá»ĥn": 1134,
      "AL": 1135,
      "á»ĩn": 1136,
      "TE": 1137,
      "Ġtháº¥t": 1138,
      "ĠKhu": 1139,
      "ĠbÃłn": 1140,
      "ĠNguyÃªn": 1141,
      "ter": 1142,
      "Ġnhá»±a": 1143,
      "å®": 1144,
      "©u": 1145,
      "OL": 1146,
      "áº¾": 1147,
      "ag": 1148,
      "Ġtráº£i": 1149,
      "Ġbá»Ļ": 1150,
      "ĠÄĳiá»ģu": 1151,
      "Ġvá»ĩ": 1152,
      "ark": 1153,
      "--": 1154,
      "ãĢĤ": 1155,
      "ĠcÆ°": 1156,
      "Ġcon": 1157,
      "ation": 1158,
      "Ġcá»©u": 1159,
      "ine": 1160,
      "ĠcÃ¡o": 1161,
      "Ġtiáº¿p": 1162,
      "Ġbáº±ng": 1163,
      "ĠLá»": 1164,
      "site": 1165,
      "Ãºng": 1166,
      "du": 1167,
      "Ġcam": 1168,
      "ĠÄĲiá»ĩn": 1169,
      "ĠÄĳá»ĳi": 1170,
      "ĠngÅ©": 1171,
      "Ġ20": 1172,
      "ĠtoÃ¡n": 1173,
      "ĠÄĳÃ³": 1174,
      "áº¯t": 1175,
      "Ġtiá»ĩn": 1176,
      "ĠmÄĥng": 1177,
      "Ġkhoa": 1178,
      "Ġlogistics": 1179,
      "ĠChÃ¢u": 1180,
      "un": 1181,
      "ĠDÆ°Æ¡ng": 1182,
      "AI": 1183,
      "ĠTÆ°": 1184,
      "ĠTá»": 1185,
      "ĠTrang": 1186,
      "Ġnháº±m": 1187,
      "Ġsu": 1188,
      "ĠtÃłu": 1189,
      "ĠÄĥn": 1190,
      "ĠTHÆ¯ÆłNG": 1191,
      "ĠViet": 1192,
      "ĠchÄĥm": 1193,
      "Ġcá»¥": 1194,
      "ES": 1195,
      "ĠNgoÃłi": 1196,
      "Ġkhá»ı": 1197,
      "VI": 1198,
      "Ġsá»Ń": 1199,
      "Ġná»ĳi": 1200,
      "ex": 1201,
      "ĠMáºłI": 1202,
      "ab": 1203,
      "ĠCH": 1204,
      "æĸ": 1205,
      "Ġbáº£n": 1206,
      "¡ng": 1207,
      "áº¬": 1208,
      "Æ°á»¡ng": 1209,
      "Ġkhá»ıe": 1210,
      "RO": 1211,
      "roup": 1212,
      "çĶ": 1213,
      "Ġhiá»ĥm": 1214,
      "ĠphÆ°Æ¡ng": 1215,
      "ĠlÆ°u": 1216,
      "ain": 1217,
      "Ġsáº¡ch": 1218,
      "ĠÃ´": 1219,
      "ĠLo": 1220,
      "uá»ĵn": 1221,
      "ĠGiáº£i": 1222,
      "ĠTÆ¯": 1223,
      "çļ": 1224,
      "Ġbiá»ĩt": 1225,
      "ĠAnh": 1226,
      "DI": 1227,
      "CM": 1228,
      "Ġ7": 1229,
      "çļĦ": 1230,
      "Ġláº¡i": 1231,
      "Ġmá»¥c": 1232,
      "ur": 1233,
      "ĠbÃ¬": 1234,
      ";--": 1235,
      "ĠtÃŃn": 1236,
      "op": 1237,
      "Ġtiáº¿ng": 1238,
      "áº¡c": 1239,
      "iá»ĥu": 1240,
      "ĠNai": 1241,
      "ĠDá»ĬCH": 1242,
      "ĠcáºŃn": 1243,
      "Ġnguá»ĵn": 1244,
      "Ġcá»Ńa": 1245,
      "ĠdÆ°á»¡ng": 1246,
      "Ġmá»¹": 1247,
      "ĠVá»¤": 1248,
      "áº«n": 1249,
      "ĠHÃ²a": 1250,
      "ĠÄĳiá»ĥm": 1251,
      "qu": 1252,
      "ĠDáº§u": 1253,
      "ĠGroup": 1254,
      "ĠcÃ¡ch": 1255,
      "ĠHoáº¡t": 1256,
      "nam": 1257,
      "ç®": 1258,
      "Ġcáº¡nh": 1259,
      "uyá»ĩn": 1260,
      "Ġthuá»ĳc": 1261,
      "ĠNH": 1262,
      "ĠSÃłi": 1263,
      "ech": 1264,
      "Ġtiáº¿n": 1265,
      "ĠÄĳÃ³ng": 1266,
      "Ġtho": 1267,
      "ĠsÃłn": 1268,
      "ĠMá»": 1269,
      "Ġbá»": 1270,
      "ĠBáº¥t": 1271,
      "ĠxÄĥng": 1272,
      "thiáº¿t": 1273,
      "ĠDá»±": 1274,
      "ĠsÃ¡ch": 1275,
      "Ġgian": 1276,
      "ĠÄĳáº·c": 1277,
      "eting": 1278,
      "Ã¨": 1279,
      "ĠGÃ²n": 1280,
      "ĠPHÃģ": 1281,
      "Ġ9": 1282,
      "arketing": 1283,
      "Ġmua": 1284,
      "ĳn": 1285,
      "Ġláº»": 1286,
      "há»ĩ": 1287,
      "ot": 1288,
      "ĠNgÃły": 1289,
      "ĠCP": 1290,
      "xÃ¢y": 1291,
      "Ġcá»Ļng": 1292,
      "áº¥u": 1293,
      "éĤ": 1294,
      "Ġvá»ĳn": 1295,
      "Ġchá»¯a": 1296,
      "Ġgá»Ĺ": 1297,
      "ÃĬ": 1298,
      "OR": 1299,
      "Ġf": 1300,
      "ĠgÃ³i": 1301,
      "áº§m": 1302,
      "ĠThiáº¿t": 1303,
      "Ġdáº«n": 1304,
      "Ġchiáº¿n": 1305,
      "Ġwebsite": 1306,
      "Ġnhanh": 1307,
      "and": 1308,
      "ĠThá»§y": 1309,
      "ĠxÃ£": 1310,
      "Ġcáº£ng": 1311,
      "Æ°ng": 1312,
      "ĠmáºŃt": 1313,
      "Ã¬m": 1314,
      "áº¦U": 1315,
      "éĤ®": 1316,
      "ĠLiÃªn": 1317,
      "ĩt": 1318,
      "ts": 1319,
      "Ġkim": 1320,
      "ess": 1321,
      "ĠÄĲá»ĭ": 1322,
      "Ġmá»Ł": 1323,
      "Ġquáº£ng": 1324,
      "av": 1325,
      "Ġkhoáº£ng": 1326,
      "ĠlÆ°á»Ľi": 1327,
      "ĠnghiÃªn": 1328,
      "HOSE": 1329,
      "HN": 1330,
      "Ġkiá»ĥm": 1331,
      "...": 1332,
      "Ġ8": 1333,
      "Ġviá»ħn": 1334,
      ":#": 1335,
      "ĠchÆ°Æ¡ng": 1336,
      "Ġtá»·": 1337,
      "ĠThu": 1338,
      "ĠbÃ£i": 1339,
      "Ġxá»Ń": 1340,
      "ĠÄĳo": 1341,
      "ow": 1342,
      "ÄĲ": 1343,
      "æĪ": 1344,
      "Ġngá»": 1345,
      "ĠÄĲáº¡i": 1346,
      "Ġthá»§": 1347,
      "hi": 1348,
      "AS": 1349,
      "EL": 1350,
      "ĠkÃ½": 1351,
      "ĠXuáº¥t": 1352,
      "CT": 1353,
      "ĠDu": 1354,
      "uÃ´i": 1355,
      "Ġcu": 1356,
      "of": 1357,
      "ĠÃĤ": 1358,
      "Ġxi": 1359,
      "Ã£ng": 1360,
      "ĠGiang": 1361,
      "art": 1362,
      "Ġsá»ĳng": 1363,
      "ĠNÄĥm": 1364,
      "áº¤T": 1365,
      "EM": 1366,
      "EN": 1367,
      "iáº¿u": 1368,
      "Ġchá»ī": 1369,
      "ĠPháº§n": 1370,
      "kh": 1371,
      "ĠVáºŃn": 1372,
      "Ġ199": 1373,
      "Ã¡m": 1374,
      "Ġdá»¯": 1375,
      "Ġnhiá»ĩt": 1376,
      "ĠnhiÃªn": 1377,
      "ĠtÄĥng": 1378,
      "Ġu": 1379,
      "IC": 1380,
      "Ãªu": 1381,
      "ĠNghá»ĩ": 1382,
      "Ġdung": 1383,
      "ate": 1384,
      "ver": 1385,
      "ĠQU": 1386,
      "Ġtrá»Ł": 1387,
      "áº¿t": 1388,
      "ĠSÃ´ng": 1389,
      "Ã³n": 1390,
      "Ġvi": 1391,
      "ĠnÃły": 1392,
      "áº¢N": 1393,
      "ä¼": 1394,
      "thá»": 1395,
      "ĠDÆ°á»£c": 1396,
      "ĠtÃ¡i": 1397,
      "ĠnuÃ´i": 1398,
      "Ġthanh": 1399,
      "ce": 1400,
      "ĠCon": 1401,
      "ĠVietnam": 1402,
      "Ġquyá»ģn": 1403,
      "éĢ": 1404,
      "ĠZ": 1405,
      "ĵģ": 1406,
      "ĠGia": 1407,
      "ĠÃŃch": 1408,
      "ĠVin": 1409,
      "ĠHÃłng": 1410,
      "ĠYÃªn": 1411,
      "IS": 1412,
      "ĠTÃ¢n": 1413,
      "Ġháº£i": 1414,
      "áº¢I": 1415,
      "um": 1416,
      "ĠÄĲáº¦U": 1417,
      "Ġë": 1418,
      "ĠlÆ°á»£c": 1419,
      "á»Ĺi": 1420,
      "ĠKinh": 1421,
      "Ġchuyá»ģn": 1422,
      "ĠhÃ£ng": 1423,
      "ĠHÆ°ng": 1424,
      "ĠthÃ¡i": 1425,
      "ew": 1426,
      "Ġuy": 1427,
      "ĠÃ¡p": 1428,
      "Ġgiáº¥y": 1429,
      "ĠDoanh": 1430,
      "ä¸ļ": 1431,
      "ĠÃĤu": 1432,
      "Ġlinh": 1433,
      "ĠchÆ¡i": 1434,
      "ĠsÃ¡t": 1435,
      "ĠBá»Ļ": 1436,
      "TV": 1437,
      "IT": 1438,
      "ĠVN": 1439,
      "AT": 1440,
      "åĵģ": 1441,
      "åħ¬": 1442,
      "ĠCam": 1443,
      "ĠmÃ³c": 1444,
      "ĠlÃ¢n": 1445,
      "Ġ--": 1446,
      "ç®±": 1447,
      "åĽ": 1448,
      "ĠSt": 1449,
      "HNX": 1450,
      "ĠKH": 1451,
      "Ġká»": 1452,
      "ore": 1453,
      "ĠNÃ´ng": 1454,
      "ĠGiÃ¡o": 1455,
      "ĠThá»ĭ": 1456,
      "ÃĬN": 1457,
      "Ġuá»ĳng": 1458,
      "co": 1459,
      "ĠTin": 1460,
      "áº¥m": 1461,
      "Ġkháº¯p": 1462,
      "ĠÄĲá»©c": 1463,
      "Ġkiáº¿n": 1464,
      "Ġchiáº¿m": 1465,
      "ĠxÆ°á»Łng": 1466,
      "Ġ-->": 1467,
      "ĠThÃ´ng": 1468,
      "ĠCáº£ng": 1469,
      "ĠÄĳáº¥t": 1470,
      "ĠGiá»": 1471,
      "ĠtÃ´ng": 1472,
      "ĠchÃºng": 1473,
      "ĠMiá»ģn": 1474,
      "Ġtá»©c": 1475,
      "200": 1476,
      "Ġtiáº¿t": 1477,
      "ĠCNT": 1478,
      "iá»ĩp": 1479,
      "ĠHO": 1480,
      "Ġtinh": 1481,
      "Ġphong": 1482,
      "ĠHá»ĩ": 1483,
      "å¹": 1484,
      "ìĿ": 1485,
      "uyá»ĥn": 1486,
      "åĪ": 1487,
      "ĠÄĳá»Ļc": 1488,
      "Æ¯á»": 1489,
      "ak": 1490,
      "Ġlu": 1491,
      "Ġtrá»Ŀi": 1492,
      "á»ĩnh": 1493,
      "éĤ®ç®±": 1494,
      "HCM": 1495,
      "Ġtuá»ĩ": 1496,
      "ĠyÃªu": 1497,
      "ĠHiá»ĩn": 1498,
      "Ġtrá»¯": 1499,
      "ĠCNTT": 1500,
      "ĠPro": 1501,
      "ital": 1502,
      "Ãļ": 1503,
      "ĠCao": 1504,
      "com": 1505,
      "Ġæ": 1506,
      "ĠSáº¢N": 1507,
      "Iá»": 1508,
      "UP": 1509,
      "Ġtráº»": 1510,
      "ĠTech": 1511,
      "Ġ30": 1512,
      "ity": 1513,
      "ĠgÃ³p": 1514,
      "Ġdá»ĩt": 1515,
      "ĠNgÃ¢n": 1516,
      "ob": 1517,
      "ĠxÃ¡c": 1518,
      "ĠkhoÃ¡ng": 1519,
      "ĠHÃ³a": 1520,
      "phÃ¢n": 1521,
      "AC": 1522,
      "os": 1523,
      "ul": 1524,
      "ĠVIET": 1525,
      "TION": 1526,
      "ME": 1527,
      "ip": 1528,
      "Ġ15": 1529,
      "áº¹p": 1530,
      "ir": 1531,
      "Ġbia": 1532,
      "ãĥ¼": 1533,
      "thÆ°Æ¡ng": 1534,
      "ĠBÃªn": 1535,
      "INH": 1536,
      "åľ": 1537,
      "įi": 1538,
      "Ġ100": 1539,
      "Łi": 1540,
      "Ġthiá»ĩn": 1541,
      "áºŃu": 1542,
      "ĠÄĲÃło": 1543,
      "ĠquÃ¡": 1544,
      "ĤN": 1545,
      "Ġchuá»Ĺi": 1546,
      "tÆ°": 1547,
      "ĠBáº£o": 1548,
      "Ġsá»Ńa": 1549,
      "ĠKho": 1550,
      "xuáº¥t": 1551,
      "æĺ": 1552,
      "Ġnhau": 1553,
      "Ġthuáº¿": 1554,
      "áº£nh": 1555,
      "Ġtháº£o": 1556,
      "ĠbÃ³n": 1557,
      "ame": 1558,
      "est": 1559,
      "AP": 1560,
      "ä½": 1561,
      "ĠÄĳÃ´ng": 1562,
      "Ġhá»ĵ": 1563,
      "Ġá»ĳng": 1564,
      "line": 1565,
      "ĠCÆ¡": 1566,
      "Ġmarketing": 1567,
      "ĠbÃª": 1568,
      "UY": 1569,
      "ck": 1570,
      "éĻ": 1571,
      "iá»ĩm": 1572,
      "PT": 1573,
      "Ġduy": 1574,
      "ĠHÃłn": 1575,
      "Ġ2007": 1576,
      "á»Ĳ": 1577,
      "ĠÄĳáº¹p": 1578,
      "åı¸": 1579,
      "NAM": 1580,
      "ĠngÃ¢n": 1581,
      "Ġnghá»ģ": 1582,
      "Ġ12": 1583,
      "Ãµ": 1584,
      "Ĺi": 1585,
      "ĠVá»¥": 1586,
      "AB": 1587,
      "Ġtour": 1588,
      "ĠTE": 1589,
      "è¿": 1590,
      "ort": 1591,
      "Ġtra": 1592,
      "Ġthiá»ĩu": 1593,
      "Ġgáº§n": 1594,
      "ĠhoÃłn": 1595,
      "ĠThanh": 1596,
      "Ġrá»": 1597,
      "RE": 1598,
      "ding": 1599,
      "Ġviá»ĩn": 1600,
      "ĠtrÃ¬": 1601,
      "ĠcÃ¢y": 1602,
      "Ġkiáº¿m": 1603,
      "ĠMTV": 1604,
      "202": 1605,
      "CP": 1606,
      "Ġbay": 1607,
      "ĠKhÃ¡ch": 1608,
      "åħ¬åı¸": 1609,
      "ĠGiá»Ľi": 1610,
      "Ġáº£nh": 1611,
      "ĠLÃło": 1612,
      "giáº£i": 1613,
      "NA": 1614,
      "ĠMáº¡i": 1615,
      "Ġmá»Ĺi": 1616,
      "ĠtÃ´i": 1617,
      "ĠphÃ¹": 1618,
      "å·": 1619,
      "áº¨": 1620,
      "åĬ¡": 1621,
      "à¹": 1622,
      "ff": 1623,
      "Æ°a": 1624,
      "Ġbiá»ĥu": 1625,
      "áº·ng": 1626,
      "OG": 1627,
      "gy": 1628,
      "ĠHá»Ļi": 1629,
      "báº¥t": 1630,
      "ç»": 1631,
      "ĠÄĲá»ĭnh": 1632,
      "ub": 1633,
      "Ġtrá»ĵng": 1634,
      "Ġkháº£": 1635,
      "ĠXU": 1636,
      "«a": 1637,
      "ĠchÃ³ng": 1638,
      "åį": 1639,
      "Ġ24": 1640,
      "iÃªng": 1641,
      "Ġ|": 1642,
      "Ġchá»ĳng": 1643,
      "åĲ": 1644,
      "ĠsÆ¡n": 1645,
      "Ġmáº·c": 1646,
      "Ġtá»Ľi": 1647,
      "ers": 1648,
      "Ġná»ķi": 1649,
      "áº¯k": 1650,
      "ĠTHá»": 1651,
      "è´": 1652,
      "Ġtráº¡m": 1653,
      "Ġthao": 1654,
      "ĠLÃ¢m": 1655,
      "phÃ¡t": 1656,
      "10": 1657,
      "ĠtÃ¬m": 1658,
      "Ġláº¡nh": 1659,
      "ĠchÃ¢u": 1660,
      "ĠÄĲÃ´": 1661,
      "ãģ®": 1662,
      "ĠXÃŃ": 1663,
      "ĠHoÃłng": 1664,
      "ĠÃ¡o": 1665,
      "ĠÄĳÄĥng": 1666,
      "ĠmÃ£": 1667,
      "ĠSh": 1668,
      "Ġhoáº¡ch": 1669,
      "ĠNgh": 1670,
      "12": 1671,
      "ment": 1672,
      "áº½": 1673,
      "US": 1674,
      "váºŃn": 1675,
      "Ġê": 1676,
      "ĠThá»±c": 1677,
      "Ġ50": 1678,
      "ĠPHÃģT": 1679,
      "ut": 1680,
      "iv": 1681,
      "ĠTM": 1682,
      "áº¿p": 1683,
      "Iáº¾": 1684,
      "íķ": 1685,
      "ĠcáºŃp": 1686,
      "ĠCO": 1687,
      "ĠphÃª": 1688,
      "2017": 1689,
      "ik": 1690,
      "ÄĲT": 1691,
      "ĠriÃªng": 1692,
      "TS": 1693,
      "od": 1694,
      "ink": 1695,
      "Ġnghá»ī": 1696,
      "Ãį": 1697,
      "ĠtÆ°Æ¡ng": 1698,
      "ĠkhÃ¡m": 1699,
      "ĠKá»¹": 1700,
      "ĠXUáº¤T": 1701,
      "MP": 1702,
      "æĬ": 1703,
      "ĠnhÃ¡nh": 1704,
      "ĠKá»": 1705,
      "ãĤĴ": 1706,
      "omp": 1707,
      "Ġtrá»įn": 1708,
      "«ng": 1709,
      "é«": 1710,
      "ĠPhÃ¢n": 1711,
      "ç«": 1712,
      "ç½": 1713,
      "ĠsÃ¢u": 1714,
      "á»ĳt": 1715,
      "tel": 1716,
      "Ġ2006": 1717,
      "if": 1718,
      "ĠPhÃ¡p": 1719,
      "Iá»ĨN": 1720,
      "ROUP": 1721,
      "CC": 1722,
      "ĠTÃłi": 1723,
      "ĠPhá»": 1724,
      "æľī": 1725,
      "ution": 1726,
      "ĠCáº§n": 1727,
      "Ãªm": 1728,
      "Ġnay": 1729,
      "Ġlá»ĩ": 1730,
      "one": 1731,
      "ĠCáº¥p": 1732,
      "Ġhai": 1733,
      "ox": 1734,
      "tain": 1735,
      "Ġáº¥n": 1736,
      "ĠkhÃ³a": 1737,
      "ĠVÄĥn": 1738,
      "Æ°á»£u": 1739,
      "Äĳáº§u": 1740,
      "ĠGIáº¢I": 1741,
      "Ġthá»¥": 1742,
      "ĠBia": 1743,
      "Ġcáº¥u": 1744,
      "ĠÄĳÃ¬nh": 1745,
      "ĠlÃªn": 1746,
      "Ġtháº§u": 1747,
      "Ġbá»ĩnh": 1748,
      "Ġgáº¡ch": 1749,
      "Ġtá»ĳt": 1750,
      "Ġmiá»ħn": 1751,
      "are": 1752,
      "olo": 1753,
      "ack": 1754,
      "æľį": 1755,
      "é«ĺ": 1756,
      "ĠNÄĥng": 1757,
      "Ġbu": 1758,
      "ĠSol": 1759,
      "Ġmá»įi": 1760,
      "Ãºt": 1761,
      "SÄĲT": 1762,
      "çī": 1763,
      "Ġninh": 1764,
      "st": 1765,
      "å¼": 1766,
      "ĠchÄĥn": 1767,
      "ĠNÆ°á»Ľc": 1768,
      "Ġbá»Ļt": 1769,
      "ĠLI": 1770,
      "ĠÃ¢m": 1771,
      "ĠphÃ©p": 1772,
      "act": 1773,
      "váºŃt": 1774,
      "ĠdÃ²ng": 1775,
      "ĠLai": 1776,
      "ĠAN": 1777,
      "Ġlao": 1778,
      "ĠbÃ¡o": 1779,
      "ANG": 1780,
      "CS": 1781,
      "Ġe": 1782,
      "ĠvÃ¹ng": 1783,
      "ĠTrÆ°á»Ŀng": 1784,
      "ĠVIETNAM": 1785,
      "ĠTÃłu": 1786,
      "Ġpro": 1787,
      "Ġgame": 1788,
      "ĠMá»Ļt": 1789,
      "ĠThÆ¡": 1790,
      "OS": 1791,
      "ĠTruyá»ģn": 1792,
      "duc": 1793,
      "Ã³i": 1794,
      "Ġmá»ı": 1795,
      "age": 1796,
      "Ġ202": 1797,
      "bal": 1798,
      "imex": 1799,
      "ĠBá»": 1800,
      "ä¸Ń": 1801,
      "ç½ĳ": 1802,
      "æµ": 1803,
      "ngÃły": 1804,
      "Ġcáº£m": 1805,
      "ĠmÃ¢y": 1806,
      "áº©y": 1807,
      "Ġtháº£i": 1808,
      "áºŃy": 1809,
      "Ġchá»īnh": 1810,
      "Ġmá»©c": 1811,
      "ĠKhÃ¡nh": 1812,
      "Ġand": 1813,
      "ĠÄĳi": 1814,
      "ĠlÃ£": 1815,
      "Ġthan": 1816,
      "ĠPl": 1817,
      "ĠCáº§u": 1818,
      "etro": 1819,
      "ood": 1820,
      "IM": 1821,
      "Iá»ĨP": 1822,
      "Ġngá»¯": 1823,
      "ANH": 1824,
      "ĠcÃł": 1825,
      "Ġdá»ħ": 1826,
      "ĠVÅ©ng": 1827,
      "Ġ198": 1828,
      "lobal": 1829,
      "ä»¶": 1830,
      "áº¬T": 1831,
      "EC": 1832,
      "çĲ": 1833,
      "ĠtrÃºc": 1834,
      "Ġtuyá»ĥn": 1835,
      "å¤§": 1836,
      "PS": 1837,
      "io": 1838,
      "Ġgiáº£m": 1839,
      "ĠTrá»": 1840,
      "igital": 1841,
      "å¸": 1842,
      "įn": 1843,
      "ĠOn": 1844,
      "quáº£n": 1845,
      "ĠthoÃ¡t": 1846,
      "æľįåĬ¡": 1847,
      "LO": 1848,
      "ial": 1849,
      "pl": 1850,
      "tern": 1851,
      "ĠTECH": 1852,
      "ND": 1853,
      "gr": 1854,
      "Ġ01": 1855,
      "ĢN": 1856,
      "IG": 1857,
      "ÃĤN": 1858,
      "ov": 1859,
      "ĠHu": 1860,
      "era": 1861,
      "ĠPHÃģP": 1862,
      "ĠThuáºŃn": 1863,
      "ĠÄĳá»ģ": 1864,
      "ÄĳÃło": 1865,
      "vn": 1866,
      "vic": 1867,
      "ĠtrÃº": 1868,
      "áº¡p": 1869,
      "©a": 1870,
      "ä¾": 1871,
      "èĥ": 1872,
      "ĠCo": 1873,
      "ĠHáº¡": 1874,
      "Ã©t": 1875,
      "ĠWeb": 1876,
      "ÃĤY": 1877,
      "Ġluyá»ĩn": 1878,
      "Ġmáº¡nh": 1879,
      "è®": 1880,
      "ĠtÃªn": 1881,
      "Ã£n": 1882,
      "ĠQuáº£n": 1883,
      "ĠÄĳÃ¡m": 1884,
      "MS": 1885,
      "ĠCT": 1886,
      "Ġbáº¡n": 1887,
      "ÃģO": 1888,
      "ĠNGHIá»ĨP": 1889,
      "ED": 1890,
      "åĮ": 1891,
      "çĽ": 1892,
      "Ġváº£i": 1893,
      "Ġchiáº¿u": 1894,
      "æĸ°": 1895,
      "af": 1896,
      "nolo": 1897,
      "ĠdÃłi": 1898,
      "Ġná»": 1899,
      "ĠLÄ©nh": 1900,
      "%.": 1901,
      "me": 1902,
      "å±": 1903,
      "ĠPV": 1904,
      "Ġthoáº¡i": 1905,
      "áº¯n": 1906,
      "ĠDá»¤": 1907,
      "ä¸Ģ": 1908,
      "æī": 1909,
      "Ġha": 1910,
      "Ġtá»¥c": 1911,
      "áº¯m": 1912,
      "Ġtá»ĳc": 1913,
      "å·¥": 1914,
      "ht": 1915,
      "sia": 1916,
      "uch": 1917,
      "ĠtÃ¹ng": 1918,
      "Ġtranh": 1919,
      "Ġsáº¯t": 1920,
      "ÃĢN": 1921,
      "åº": 1922,
      "Ãªnh": 1923,
      "Ġ11": 1924,
      "á»ĲC": 1925,
      "50": 1926,
      "AD": 1927,
      "Ġchung": 1928,
      "ĠMed": 1929,
      "Ġ500": 1930,
      "Ġcáº§n": 1931,
      "Ġso": 1932,
      "ĠHÃĢ": 1933,
      "ĠGROUP": 1934,
      "åĽ½": 1935,
      "Iá»ĤN": 1936,
      "pháº§n": 1937,
      "ĠLogistics": 1938,
      "PC": 1939,
      "Ġa": 1940,
      "áº³": 1941,
      "ĠÄĳÃ¡nh": 1942,
      "ĠtrÃ²": 1943,
      "Ġphá»§": 1944,
      "ĠTHU": 1945,
      "ook": 1946,
      "æķ": 1947,
      "æĿ": 1948,
      "Ġxanh": 1949,
      "Ġnhá»ı": 1950,
      "Ġ40": 1951,
      "áº³ng": 1952,
      "AO": 1953,
      "Ġí": 1954,
      "Ġlá»¯": 1955,
      "ĠXi": 1956,
      "Ġ02": 1957,
      "ee": 1958,
      "å°": 1959,
      "ëĭ": 1960,
      "ĠTO": 1961,
      "ĠTáº¾": 1962,
      "ĠVáºŃt": 1963,
      "ING": 1964,
      "Viá»ĩt": 1965,
      "Ġè": 1966,
      "ĠIT": 1967,
      "ĠEn": 1968,
      "áº¬P": 1969,
      "ID": 1970,
      "Ã´m": 1971,
      "ĠLan": 1972,
      "áº¤N": 1973,
      "VIá»ĨT": 1974,
      "Ġcuá»ĳi": 1975,
      "ud": 1976,
      "è¶": 1977,
      "ĠsiÃªu": 1978,
      "ĠNá»ģn": 1979,
      "oáº¡i": 1980,
      "ĠdÆ°á»Ľi": 1981,
      "Ġsau": 1982,
      "ĠgiÃłu": 1983,
      "Ġquáº§n": 1984,
      "ĠAl": 1985,
      "Ġ18": 1986,
      "tech": 1987,
      "ĠTRIá»ĤN": 1988,
      "æĬĢ": 1989,
      "ĠcáºŃy": 1990,
      "ĠBÃł": 1991,
      "all": 1992,
      "ish": 1993,
      "ĠgiÃ¡m": 1994,
      "Ġ197": 1995,
      "ear": 1996,
      "æĶ": 1997,
      "éĽ": 1998,
      "ĠNhá»": 1999,
      "ĠGlobal": 2000,
      "ĠHol": 2001,
      "èĥ½": 2002,
      "Ġá»ĳc": 2003,
      "Ġhuyá»ĩn": 2004,
      "ĠTHÃĶNG": 2005,
      "åħ¨": 2006,
      "ervic": 2007,
      "ĠDá»°": 2008,
      "ä¼ģ": 2009,
      "éĩ": 2010,
      "ĠdÃłnh": 2011,
      "ĠsÆ¡": 2012,
      "Ġsá»£i": 2013,
      "lock": 2014,
      "äº§": 2015,
      "ĠcÃ¡p": 2016,
      "ĠTy": 2017,
      "Ġ14": 2018,
      "ace": 2019,
      "ĠphÃŃa": 2020,
      "TA": 2021,
      "ĠkÃªnh": 2022,
      "ĠbÃ¬nh": 2023,
      "ĠMÃ´i": 2024,
      "ĠÄĲÆ¡n": 2025,
      "ãģĻ": 2026,
      "ie": 2027,
      "sh": 2028,
      "å¿": 2029,
      "ĠÃļ": 2030,
      "ĠnháºŃt": 2031,
      "ĠVÄ©nh": 2032,
      "ĠDU": 2033,
      "giÃ¡o": 2034,
      "Ġbá»Łi": 2035,
      "oft": 2036,
      "ĠchÃ¡y": 2037,
      "ĠmÃł": 2038,
      "á»ĳn": 2039,
      "ĠInd": 2040,
      "IP": 2041,
      "ĠkÃŃnh": 2042,
      "ÃŃt": 2043,
      "ĠgiÃły": 2044,
      "Ġchá»©a": 2045,
      "MA": 2046,
      "ure": 2047,
      "æĹ": 2048,
      "ĠAp": 2049,
      "Ġ16": 2050,
      "ĠQUá»ĲC": 2051,
      "ĠCamp": 2052,
      "ui": 2053,
      "ĠbÃ¡nh": 2054,
      "ĠPetro": 2055,
      "ĠÄĲÃłi": 2056,
      "Ġlá»įc": 2057,
      "UYá»": 2058,
      "uchia": 2059,
      "Ġdanh": 2060,
      "ĠCháº¿": 2061,
      "ĠEng": 2062,
      "çŃ": 2063,
      "Ġda": 2064,
      "Ã¬n": 2065,
      "äºº": 2066,
      "AY": 2067,
      "se": 2068,
      "ç§": 2069,
      "ĠÄĳáº©y": 2070,
      "ĠTÃ¬m": 2071,
      "Ġ13": 2072,
      "ev": 2073,
      "ok": 2074,
      "åĨ": 2075,
      "æ¥": 2076,
      "Ġhoa": 2077,
      "ard": 2078,
      "Ġ2004": 2079,
      "å¹´": 2080,
      "oc": 2081,
      "ĠkhÃ¡t": 2082,
      "ĠBáº¿n": 2083,
      "Æ°Æ¡i": 2084,
      "Ġtá»«ng": 2085,
      "ĠHoa": 2086,
      "ĠCampuchia": 2087,
      "19": 2088,
      "DC": 2089,
      "IL": 2090,
      "ONG": 2091,
      "ĠHU": 2092,
      "ont": 2093,
      "ĠÄĲá»ĭa": 2094,
      "ĠTechnolo": 2095,
      "MC": 2096,
      "iz": 2097,
      "mail": 2098,
      "´ì": 2099,
      "Æ¯á»¢": 2100,
      "tainer": 2101,
      "ĠÃļc": 2102,
      "å¯": 2103,
      "æ±": 2104,
      "ıng": 2105,
      "Ġháº¡t": 2106,
      "Ġsá»¯a": 2107,
      "ĠThá»į": 2108,
      "å®¶": 2109,
      "ãĥ¼ãĥ": 2110,
      "UN": 2111,
      "iet": 2112,
      "åŃ": 2113,
      "Ġtáº¥m": 2114,
      "Ġpin": 2115,
      "ind": 2116,
      "Ġ2008": 2117,
      "ass": 2118,
      "áº«u": 2119,
      "çĶ¨": 2120,
      "ĠLoan": 2121,
      "ĠSS": 2122,
      "ĠAd": 2123,
      "ĠKim": 2124,
      "ãģĹ": 2125,
      "åıĳ": 2126,
      "ĠGIÃģO": 2127,
      "ĠlÃ£nh": 2128,
      "ĠDá»¤C": 2129,
      "ĠtÆ°Æ¡i": 2130,
      "2018": 2131,
      "áº¨M": 2132,
      "AG": 2133,
      "ä¿": 2134,
      "ĠLa": 2135,
      "ĠSolution": 2136,
      "ĠHolding": 2137,
      "æ¥Ń": 2138,
      "Tá»ķng": 2139,
      "limex": 2140,
      "ĠSing": 2141,
      "VN": 2142,
      "ĠMÃ¡y": 2143,
      "orm": 2144,
      "ile": 2145,
      "ĮC": 2146,
      "ĠCÃł": 2147,
      "Ã¹y": 2148,
      "ĠCont": 2149,
      "OT": 2150,
      "ite": 2151,
      "Ġá»ķ": 2152,
      "ĠtÃ¹y": 2153,
      "áº§y": 2154,
      "Æ°á»£t": 2155,
      "ĠVá»ģ": 2156,
      "ower": 2157,
      "SO": 2158,
      "ib": 2159,
      "Ġon": 2160,
      "Ġlá»Ļ": 2161,
      "Ġst": 2162,
      "iness": 2163,
      "ĠChuyÃªn": 2164,
      "ĠXÃĤY": 2165,
      "ĠIN": 2166,
      "ha": 2167,
      "ies": 2168,
      "Ġcáº£i": 2169,
      "ĠthÆ°": 2170,
      "ĠViá»ħn": 2171,
      "Ã³m": 2172,
      "ĠChÃŃnh": 2173,
      "Ġá»¨": 2174,
      "Ġquyáº¿t": 2175,
      "äºİ": 2176,
      "ĠluáºŃt": 2177,
      "uÃ¢n": 2178,
      "ĠvÃ©": 2179,
      "ĠVáº¤N": 2180,
      "ĠHá»ĵng": 2181,
      "Ġgiá»¯a": 2182,
      "Ġ2016": 2183,
      "usiness": 2184,
      "çĶµ": 2185,
      "ĠHuáº¿": 2186,
      "UR": 2187,
      "nÃ´ng": 2188,
      "ys": 2189,
      "ĠtÆ°á»£ng": 2190,
      "ĠthÃº": 2191,
      "á»ĭa": 2192,
      "Ġ25": 2193,
      "ĠPHáº¨M": 2194,
      "ĠNha": 2195,
      "Ġ2009": 2196,
      "Iáº¾T": 2197,
      "Ġá»ķn": 2198,
      "Ġgá»": 2199,
      "Ġkhi": 2200,
      "ĠMay": 2201,
      "Ġ03": 2202,
      "ä¾Ľ": 2203,
      "ĠDá»°NG": 2204,
      "çĻ": 2205,
      "Ġsá»©": 2206,
      "tiv": 2207,
      "iá»ģm": 2208,
      "ĠVINA": 2209,
      "Ġ2017": 2210,
      "apore": 2211,
      "ax": 2212,
      "ith": 2213,
      "ue": 2214,
      "ÃĮ": 2215,
      "ĠcÄĥn": 2216,
      "ĠÄĳÃ¡ng": 2217,
      "Ġáº©m": 2218,
      "ĠSp": 2219,
      "ÃĢNH": 2220,
      "Ġká»ĥ": 2221,
      "æĺĵ": 2222,
      "Ĥ¬": 2223,
      "Ġngoáº¡i": 2224,
      "orp": 2225,
      "Ġ2005": 2226,
      "%,": 2227,
      "AV": 2228,
      "ĠXÄĥng": 2229,
      "end": 2230,
      "ord": 2231,
      "åıĬ": 2232,
      "ST": 2233,
      "sting": 2234,
      "æı": 2235,
      "ĠthiÃªn": 2236,
      "Ġgáº¡o": 2237,
      "chain": 2238,
      "ĠME": 2239,
      "ans": 2240,
      "Ġchá»įn": 2241,
      "ĠKhai": 2242,
      "ĠTHIáº¾T": 2243,
      "ĠRá»ĭa": 2244,
      "Ġ2010": 2245,
      "2016": 2246,
      "ĠHá»£p": 2247,
      "çŃī": 2248,
      "OO": 2249,
      "SC": 2250,
      "ich": 2251,
      "ĠTiá»ģn": 2252,
      "ĠNew": 2253,
      "Ġkháº£o": 2254,
      "ĠST": 2255,
      "ank": 2256,
      "ĠNgÃ£i": 2257,
      "ĠQuáºŃn": 2258,
      "ãĤ¹": 2259,
      "ell": 2260,
      "ĠSingapore": 2261,
      "ĠÃĶ": 2262,
      "Ġháº¡n": 2263,
      "enu": 2264,
      "ä¸ĵ": 2265,
      "az": 2266,
      "nÄĥng": 2267,
      "çº": 2268,
      "Ġquá»¹": 2269,
      "Ġcá»±c": 2270,
      "ĠPhÆ°á»Ľc": 2271,
      "ĠthuáºŃn": 2272,
      "Ãºi": 2273,
      "ĠrÆ°á»£u": 2274,
      "ãĥ³": 2275,
      "ĠHome": 2276,
      "ian": 2277,
      "áº¡y": 2278,
      "ĠnhÃ£n": 2279,
      "ĠhoÃ¡": 2280,
      "ĠPL": 2281,
      "ĠPhÃºc": 2282,
      "isa": 2283,
      "ĠnhuáºŃn": 2284,
      "éĻĲ": 2285,
      "Ãµi": 2286,
      "ĠMINH": 2287,
      "ĠÄĲáº¯k": 2288,
      "ĠÄĲIá»ĨN": 2289,
      "ĠLÃł": 2290,
      "áº¯ng": 2291,
      "ĠTá»«": 2292,
      "æĪĲ": 2293,
      "ĠbuÃ´n": 2294,
      "DV": 2295,
      "MW": 2296,
      "åĴ": 2297,
      "è¯": 2298,
      "ĠtrÆ°á»Łng": 2299,
      "ĠmÃłu": 2300,
      "ĠNá»": 2301,
      "Ġxáº¿p": 2302,
      "å¤ļ": 2303,
      "ĠNghiá»ĩp": 2304,
      "çĲĨ": 2305,
      "åķ": 2306,
      "ļI": 2307,
      "ĠhÆ°Æ¡ng": 2308,
      "ĠthÃºc": 2309,
      "á»ĳp": 2310,
      "Ġlá»ıng": 2311,
      "ĠXuÃ¢n": 2312,
      "ĠThá»§": 2313,
      "Ġ06": 2314,
      "Ġ2015": 2315,
      "ign": 2316,
      "TECH": 2317,
      "IA": 2318,
      "RI": 2319,
      "ĠÄĳÃ¡o": 2320,
      "ĠCl": 2321,
      "ĠComp": 2322,
      "ĠTuyá»ĥn": 2323,
      "Æ¡m": 2324,
      "ĠSE": 2325,
      "ĠNhÆ¡n": 2326,
      "á»Ńi": 2327,
      "éĿ": 2328,
      "Ġpháº¡m": 2329,
      "ĠSun": 2330,
      "arm": 2331,
      "ĠTHÃĢNH": 2332,
      "DING": 2333,
      "è¶ħ": 2334,
      "500": 2335,
      "td": 2336,
      "æĮ": 2337,
      "Ġnháº¡c": 2338,
      "ĠBao": 2339,
      "ĠTrong": 2340,
      "logistics": 2341,
      ".,": 2342,
      "PG": 2343,
      "SP": 2344,
      "ç¤": 2345,
      "ĠPr": 2346,
      "Ġchuyá»ĩn": 2347,
      "Ġdá»±a": 2348,
      "ĠChÃºng": 2349,
      "ãģĦ": 2350,
      "ĠRes": 2351,
      "æľīéĻĲ": 2352,
      "ĠNhá»±a": 2353,
      "LE": 2354,
      "Ġchai": 2355,
      "ĠchÃº": 2356,
      "cho": 2357,
      "Ġtá»§": 2358,
      "ico": 2359,
      "out": 2360,
      "ĠPetrolimex": 2361,
      "æľīéĻĲåħ¬åı¸": 2362,
      "AF": 2363,
      "pr": 2364,
      "ìł": 2365,
      "Ġgá»Ńi": 2366,
      "Ġhá»©ng": 2367,
      "ĠAc": 2368,
      "ight": 2369,
      "mart": 2370,
      "Ġof": 2371,
      "ĠhÃ²a": 2372,
      "ĠháºŃu": 2373,
      "Ġtháº©m": 2374,
      "Ġmáº«u": 2375,
      "ĠquáºŃn": 2376,
      "Ġ17": 2377,
      "è§": 2378,
      "éģ": 2379,
      "ìĹ": 2380,
      "ĠnhÃ´m": 2381,
      "ĠrÃ¡c": 2382,
      "ork": 2383,
      "olf": 2384,
      "Ġ04": 2385,
      "ustr": 2386,
      "Äĳiá»ĩn": 2387,
      "Ã¨n": 2388,
      "Ġcuá»Ļc": 2389,
      "11": 2390,
      "Viet": 2391,
      "eg": 2392,
      "lish": 2393,
      "oT": 2394,
      "ps": 2395,
      "³»": 2396,
      "ç³»": 2397,
      "ĠtáºŃn": 2398,
      "Ġkiá»ĩm": 2399,
      "ĠmÃ¬nh": 2400,
      "ĠMarketing": 2401,
      "Ġquang": 2402,
      "ãģ«": 2403,
      "Ġcontainer": 2404,
      "und": 2405,
      "æĪĳ": 2406,
      "æĭ": 2407,
      "ĠtÃ²a": 2408,
      "ĠCON": 2409,
      "Ġkhiá»ĥn": 2410,
      "ĠPhÆ°Æ¡ng": 2411,
      "áº¬N": 2412,
      "Ġ70": 2413,
      "UYá»ĢN": 2414,
      "ÃĴ": 2415,
      "ĠCorp": 2416,
      "ĠdÃłng": 2417,
      "Ġhuy": 2418,
      "Ġphi": 2419,
      "ĠsÃ¢n": 2420,
      "int": 2421,
      "ãģ¾": 2422,
      "âĢĿ": 2423,
      "ĠVina": 2424,
      "CE": 2425,
      "kinh": 2426,
      "Ãĵ": 2427,
      "Ġgá»ĳc": 2428,
      "ĠDO": 2429,
      "Ġ196": 2430,
      "ideo": 2431,
      "ĠÄĳoáº¡n": 2432,
      "lockchain": 2433,
      "Ng": 2434,
      "UT": 2435,
      "°C": 2436,
      "æİ": 2437,
      "cháº¿": 2438,
      "ĠgiÃ³": 2439,
      "ãģ§": 2440,
      "ĠmÃ´n": 2441,
      "ĠKhÃŃ": 2442,
      "ĠÄĳá»Ŀi": 2443,
      "æľº": 2444,
      "ĠluÃ´n": 2445,
      "MI": 2446,
      "form": 2447,
      "Ġba": 2448,
      "ĠÄĲÆ°á»Ŀng": 2449,
      "ĠII": 2450,
      "ata": 2451,
      "ĠTechnology": 2452,
      "è¡": 2453,
      "ĠsÃ´ng": 2454,
      "thá»±c": 2455,
      "ç¤¾": 2456,
      "NC": 2457,
      "báº£o": 2458,
      "ek": 2459,
      "ÃĿ": 2460,
      "æĻ": 2461,
      "ç¨": 2462,
      "ĠTá»ķ": 2463,
      "Ġngay": 2464,
      "ĠnhÃ³m": 2465,
      "ina": 2466,
      "ĠDá»ĩt": 2467,
      "ĠLá»ĬCH": 2468,
      "UNG": 2469,
      "to": 2470,
      "ĠÃ½": 2471,
      "ĠCan": 2472,
      "Ġsp": 2473,
      "Ġmáº¹": 2474,
      "ĠSOL": 2475,
      "ĠÄĲá»Ļi": 2476,
      "ĠÄĲÄĥng": 2477,
      "ĠQuy": 2478,
      "ãĥĪ": 2479,
      "oun": 2480,
      "ada": 2481,
      "åĮĸ": 2482,
      "ä¼ģä¸ļ": 2483,
      "åĴĮ": 2484,
      "Ġtruy": 2485,
      "Ä©a": 2486,
      "any": 2487,
      "ĠThÃ¡p": 2488,
      "tem": 2489,
      "ãĤĭ": 2490,
      "AIL": 2491,
      "Ã¨m": 2492,
      "CB": 2493,
      "TC": 2494,
      "ÄĤ": 2495,
      "ĺI": 2496,
      "ĠÄĳáº¡o": 2497,
      "ĠCai": 2498,
      "ĠTÄ©nh": 2499,
      "Ġbáº¡ch": 2500,
      "ĠMau": 2501,
      "ãģ¦": 2502,
      "ĠTRUYá»ĢN": 2503,
      "áºµn": 2504,
      "ĠtÃ´m": 2505,
      "ĠKhoÃ¡ng": 2506,
      "ervices": 2507,
      "VA": 2508,
      "áº®": 2509,
      "Ġsáºµn": 2510,
      "ĠDigital": 2511,
      "ĠLu": 2512,
      "ĠAb": 2513,
      "Ġ22": 2514,
      "ĠTrá»ĭ": 2515,
      "Ġkhoan": 2516,
      "Ġ300": 2517,
      "æĸ¹": 2518,
      "ĠEnglish": 2519,
      "SH": 2520,
      "ion": 2521,
      "per": 2522,
      "æ³": 2523,
      "ĠlÆ°Æ¡ng": 2524,
      "Ġban": 2525,
      "ĠnÆ¡i": 2526,
      "ĠÄĲÃ¬nh": 2527,
      "ĠBiÃªn": 2528,
      "ĠAP": 2529,
      "Ġìł": 2530,
      "ĠHá»ĮC": 2531,
      "éĢļ": 2532,
      "æĺ¯": 2533,
      "Ġá»¨ng": 2534,
      "ix": 2535,
      "è¦": 2536,
      "ĠtrÃ¡i": 2537,
      "ĠTáº¿": 2538,
      "ĠthÃªm": 2539,
      "ĠbÄĥng": 2540,
      "Ġthá»±": 2541,
      "ĠLáº¯k": 2542,
      "Ġkhoáº£n": 2543,
      "ĠGiáº¥y": 2544,
      "éĢł": 2545,
      "40": 2546,
      "CG": 2547,
      "ty": 2548,
      "ĠtÆ°á»Łng": 2549,
      "Ġvideo": 2550,
      "Ġvá»«a": 2551,
      "ĠSá»ĳ": 2552,
      "ĠLtd": 2553,
      "âĢ¦": 2554,
      "Ġ60": 2555,
      "ä¼ļ": 2556,
      "åĪ¶": 2557,
      "è¿Ĳ": 2558,
      "ECO": 2559,
      "FT": 2560,
      "ĠÃ©p": 2561,
      "įa": 2562,
      "ĠlÃŃt": 2563,
      "Ġphim": 2564,
      "ĠGMP": 2565,
      "ĠAR": 2566,
      "ĠXanh": 2567,
      "ãģª": 2568,
      "Ã©o": 2569,
      "á»ĩt": 2570,
      "reen": 2571,
      "ill": 2572,
      "Iá»ĨU": 2573,
      "Ġrá»Ńa": 2574,
      "ĠOne": 2575,
      "ternet": 2576,
      "ĠTHUáº¬T": 2577,
      "06": 2578,
      "TP": 2579,
      "iver": 2580,
      "¸°": 2581,
      "ĩnh": 2582,
      "á»·": 2583,
      "ĠlÆ°á»Ŀng": 2584,
      "ĠMai": 2585,
      "Ġmá»ĩnh": 2586,
      "ĠNháºŃp": 2587,
      "Ġ08": 2588,
      "57": 2589,
      "è½": 2590,
      "ĠsÆ°": 2591,
      "Ġhoáº·c": 2592,
      "áºłN": 2593,
      "ater": 2594,
      "BAL": 2595,
      "KV": 2596,
      "ach": 2597,
      "ĠTiáº¿": 2598,
      "Ġdo": 2599,
      "ĠtuÃ¢n": 2600,
      "ç½ĳæĺĵ": 2601,
      "SB": 2602,
      "SD": 2603,
      "WT": 2604,
      "eal": 2605,
      "éĸ": 2606,
      "Ġâ": 2607,
      "Ġmáº¡": 2608,
      "Ġthá»Ń": 2609,
      "ĠAS": 2610,
      "ĠAr": 2611,
      "ick": 2612,
      "oud": 2613,
      "Ġhá»Ļp": 2614,
      "ĠCons": 2615,
      "ĠSolutions": 2616,
      "åķĨ": 2617,
      "Ĳä¾Ľ": 2618,
      "ĠGLO": 2619,
      "ĠrÃ£i": 2620,
      "ĠQuang": 2621,
      "ĠEU": 2622,
      "ÃģCH": 2623,
      "çĶŁ": 2624,
      "ĠMedia": 2625,
      "link": 2626,
      "po": 2627,
      "åĭ": 2628,
      "ĠÄĳáº§y": 2629,
      "Ġlai": 2630,
      "ĠhÆ¡i": 2631,
      "ĠAB": 2632,
      "Ġ28": 2633,
      "thá»§y": 2634,
      "Ġká»³": 2635,
      "åĲĪ": 2636,
      "ĠKá»¸": 2637,
      "ĠWebsite": 2638,
      "CI": 2639,
      "IÃĬN": 2640,
      "eng": 2641,
      "è¨": 2642,
      "Ġtáº·ng": 2643,
      "Ġnhiá»ĩm": 2644,
      "ĠSao": 2645,
      "ĠLá»Ļc": 2646,
      "ance": 2647,
      "ĠPhong": 2648,
      "ĠEx": 2649,
      "ĠKá»³": 2650,
      "æĮģ": 2651,
      "Ãĥ": 2652,
      "ĠcÃ¢u": 2653,
      "ĠÄĳÃªm": 2654,
      "ĠTo": 2655,
      "ĠMW": 2656,
      "thi": 2657,
      "ĠÄĳá»§": 2658,
      "Ġtáº§m": 2659,
      "enter": 2660,
      "ĠHá»įc": 2661,
      "ĠCTCP": 2662,
      "ÄĤNG": 2663,
      "45": 2664,
      "EX": 2665,
      "ĠPP": 2666,
      "ĠBa": 2667,
      "ĠThi": 2668,
      "TICS": 2669,
      "Ġngá»«ng": 2670,
      "khai": 2671,
      "äº§åĵģ": 2672,
      "tive": 2673,
      "èĩ": 2674,
      "Ġ.": 2675,
      "Ġgiai": 2676,
      "ĠMan": 2677,
      "ĠPháº¡m": 2678,
      "Ġ2003": 2679,
      "OLOG": 2680,
      "avel": 2681,
      "07": 2682,
      "TH": 2683,
      "ep": 2684,
      "gle": 2685,
      "Ġ/": 2686,
      "įng": 2687,
      "ĠÄĳÆ°a": 2688,
      "Ġhiá»ĥu": 2689,
      "ĠchÆ°a": 2690,
      "Ġnon": 2691,
      "olor": 2692,
      "æł": 2693,
      "ç²": 2694,
      "ĠTáº¡o": 2695,
      "Ġphiáº¿u": 2696,
      "ĠthÃŃch": 2697,
      "ĠLÆ°Æ¡ng": 2698,
      "ĠChi": 2699,
      "ast": 2700,
      "Ġ07": 2701,
      "áºłO": 2702,
      "NTER": 2703,
      "ĠìĹ": 2704,
      "Ġtuá»ķi": 2705,
      "ĠGLOBAL": 2706,
      "bs": 2707,
      "åŁ": 2708,
      "Ġé": 2709,
      "Ġvay": 2710,
      "ĠToÃłn": 2711,
      "ĠsÄ©": 2712,
      "Ġthá»į": 2713,
      "ĠLOG": 2714,
      "ĠChung": 2715,
      "udio": 2716,
      "TT": 2717,
      "¨C": 2718,
      "çİ": 2719,
      "Ġcomp": 2720,
      "Ġsáº¯m": 2721,
      "Ġthay": 2722,
      "á»Ļn": 2723,
      "Ġgiáº£ng": 2724,
      "ĠÄĲO": 2725,
      "ĠGiÃ¡": 2726,
      "å¸Ĥ": 2727,
      "Ġonline": 2728,
      "Co": 2729,
      "bÃ¡n": 2730,
      "åĩ": 2731,
      "æ´": 2732,
      "ê°": 2733,
      "Ġis": 2734,
      "Ġláº¡c": 2735,
      "ĠTáºłO": 2736,
      "ĠthÆ°á»Ŀng": 2737,
      "Ġchia": 2738,
      "ĠbáºŃt": 2739,
      "ĠkhÃ¢u": 2740,
      "áºŃm": 2741,
      "ĠBr": 2742,
      "ĠUs": 2743,
      "truyá»ģn": 2744,
      "ĠDá»±ng": 2745,
      "ĠShop": 2746,
      "åŃĲ": 2747,
      "ĠHoldings": 2748,
      "ÃĮNH": 2749,
      "VE": 2750,
      "ii": 2751,
      "èµ": 2752,
      "ĠhÃºt": 2753,
      "Ġmáº¯t": 2754,
      "enc": 2755,
      "Ġwith": 2756,
      "ä»£": 2757,
      "å¼ı": 2758,
      "ĠTECHN": 2759,
      "SG": 2760,
      "phá»": 2761,
      "åĻ": 2762,
      "ĠCap": 2763,
      "Ġsao": 2764,
      "ĠBÆ°u": 2765,
      "ĠChuyá»ĥn": 2766,
      "ĠNhÃ¢n": 2767,
      "Ġgiá»ĳng": 2768,
      "ĠÄĳÃ¨n": 2769,
      "ĠCR": 2770,
      "ĠGá»Ĺ": 2771,
      "ĠFPT": 2772,
      "old": 2773,
      "INE": 2774,
      "ç«¯": 2775,
      "ĠAbout": 2776,
      "ìĬ": 2777,
      "ıa": 2778,
      "Ġvui": 2779,
      "Ġmá»ĳi": 2780,
      "ĠngÃ³i": 2781,
      "Ġghi": 2782,
      "ĠMenu": 2783,
      "ĠISO": 2784,
      "ĠCá»Ńa": 2785,
      "ÃģC": 2786,
      "ĠUn": 2787,
      "ĠON": 2788,
      "2010": 2789,
      "oogle": 2790,
      "éĤ®ä»¶": 2791,
      "Æ¯á»ľ": 2792,
      "ĠProduc": 2793,
      "ĠCanada": 2794,
      "åĻ¨": 2795,
      "CN": 2796,
      "TD": 2797,
      "Tech": 2798,
      "bu": 2799,
      "Ġtráº¡i": 2800,
      "ĠHOL": 2801,
      "Ġnung": 2802,
      "Ġnam": 2803,
      "ĠAsia": 2804,
      "Ã©n": 2805,
      "ä¸º": 2806,
      "omm": 2807,
      "Ġcáº£nh": 2808,
      "Ġ90": 2809,
      "æıĲä¾Ľ": 2810,
      "bo": 2811,
      "háº¡": 2812,
      "tÃłi": 2813,
      "æĢ": 2814,
      "ĠÄĳÃºc": 2815,
      "Ġdáº¡y": 2816,
      "Ġsáº»": 2817,
      "ĠLinh": 2818,
      "ones": 2819,
      "ĠNguy": 2820,
      "Ġ05": 2821,
      "2020": 2822,
      "Ġcamera": 2823,
      "ç®¡": 2824,
      "Ġhá»ĵi": 2825,
      "CD": 2826,
      "VER": 2827,
      "ah": 2828,
      "ge": 2829,
      "ìĤ¬": 2830,
      "Ġi": 2831,
      "Ġlan": 2832,
      "ĠlÃ¢u": 2833,
      "Ġkháº³ng": 2834,
      "ĠSk": 2835,
      "ĠDV": 2836,
      "Ġ2011": 2837,
      "Ġ2018": 2838,
      "ect": 2839,
      "Ġ80": 2840,
      "EMAIL": 2841,
      "ç²¾": 2842,
      "02": 2843,
      "Ch": 2844,
      "DU": 2845,
      "é¢": 2846,
      "á»±": 2847,
      "Ġtay": 2848,
      "Ġcáº¯t": 2849,
      "Ġvai": 2850,
      "Ġgolf": 2851,
      "Ġgiáº£": 2852,
      "ĠBe": 2853,
      "ĠXem": 2854,
      "ĠEN": 2855,
      "ĠFood": 2856,
      "ust": 2857,
      "ĠtÃ´n": 2858,
      "Ġkhá»Łi": 2859,
      "DIA": 2860,
      "Ġfor": 2861,
      "ĠVinac": 2862,
      "ĠContact": 2863,
      "24": 2864,
      "UTION": 2865,
      "dro": 2866,
      "land": 2867,
      "px": 2868,
      "åī": 2869,
      "nhÃł": 2870,
      "ĠÄĲH": 2871,
      "ĠThiÃªn": 2872,
      "Ġ21": 2873,
      "ãģĬ": 2874,
      "2015": 2875,
      "ĠGIA": 2876,
      "æĶ¯": 2877,
      "ĠTECHNOLOG": 2878,
      "CA": 2879,
      "å¾": 2880,
      "æ¸": 2881,
      "ĠÐ": 2882,
      "Ġcá»ĳt": 2883,
      "ĠTiáº¿n": 2884,
      "ĠTáº¬P": 2885,
      "Ġmáº§m": 2886,
      "ĠbÃłi": 2887,
      "ĠSÃ¡ch": 2888,
      "ĠMy": 2889,
      "ĠMar": 2890,
      "ĠBÃłi": 2891,
      "ĠNgá»": 2892,
      "ement": 2893,
      "ãĤ¢": 2894,
      "ice": 2895,
      "2019": 2896,
      "ART": 2897,
      "ode": 2898,
      "è®¾": 2899,
      "ystem": 2900,
      "ãģ¾ãģĻ": 2901,
      "ĠHOLDING": 2902,
      "05": 2903,
      "DA": 2904,
      "LA": 2905,
      "dÆ°á»£c": 2906,
      "æ¡": 2907,
      "è³": 2908,
      "èĤ": 2909,
      "ìĦ": 2910,
      "ìĭ": 2911,
      "Ġtiá»ģm": 2912,
      "Ġdinh": 2913,
      "Ġbáº¿n": 2914,
      "ĠquÃł": 2915,
      "Ġmá»§": 2916,
      "ond": 2917,
      "ĠTravel": 2918,
      "alay": 2919,
      "ĠEdu": 2920,
      "ĠLá»£i": 2921,
      "ĠsoÃ¡t": 2922,
      "ç§ĳ": 2923,
      "ĠÄĲOÃĢN": 2924,
      "TM": 2925,
      "ead": 2926,
      "Ġç": 2927,
      "ıi": 2928,
      "Ńu": 2929,
      "á»ħn": 2930,
      "ĠsÃºc": 2931,
      "ĠnÃªn": 2932,
      "ĠSH": 2933,
      "ĠSP": 2934,
      "ĠÄĲÆ°á»£c": 2935,
      "ĠGoogle": 2936,
      "ĠCá»Ńu": 2937,
      "Ġgiá»¯": 2938,
      "ebook": 2939,
      "ĠTRANG": 2940,
      "ĠThá»ĭnh": 2941,
      "áº¨U": 2942,
      "ĠBá»Ĭ": 2943,
      "Ġná»¯": 2944,
      "ëĭĪ": 2945,
      "phá»¥": 2946,
      "ĠNguyá»ħn": 2947,
      "RA": 2948,
      "de": 2949,
      "ĠGreen": 2950,
      "esign": 2951,
      "ä»¬": 2952,
      "åĬĽ": 2953,
      "å¤ĸ": 2954,
      "ESS": 2955,
      "ĠCHá»": 2956,
      "ĠKHáº¨U": 2957,
      "åľ¨": 2958,
      "ä¿¡": 2959,
      "ry": 2960,
      "ware": 2961,
      "Ġcáº§m": 2962,
      "Ġbá»ĵn": 2963,
      "Ġxin": 2964,
      "ĠVÃ¢n": 2965,
      "ĠSO": 2966,
      "ĠServices": 2967,
      "ĠBá»ĩnh": 2968,
      "ĠLá»ĭch": 2969,
      "Ġ2000": 2970,
      "ĠrÃµ": 2971,
      "alo": 2972,
      "ĠEmail": 2973,
      "ï¼Ī": 2974,
      "ï¼ī": 2975,
      "aco": 2976,
      "ëĭ¤": 2977,
      "éĽĨ": 2978,
      "æĪĳä»¬": 2979,
      "ĠLOGIS": 2980,
      "alaysia": 2981,
      "13": 2982,
      "AK": 2983,
      "GI": 2984,
      "ĠvÃłng": 2985,
      "ĠchÃŃ": 2986,
      "Ġnáº±m": 2987,
      "Ġthá»ĭt": 2988,
      "ĠVIÃĬN": 2989,
      "ãĤ·": 2990,
      "å®¢": 2991,
      "CoM": 2992,
      "LI": 2993,
      "tline": 2994,
      "uc": 2995,
      "§Ģ": 2996,
      "è£": 2997,
      "Ġkáº½": 2998,
      "Ġgh": 2999,
      "ĠSmart": 3000,
      "ĠÄĲáºłI": 3001,
      "ĠLand": 3002,
      "ĠThe": 3003,
      "ist": 3004,
      "ãĥ»": 3005,
      "ãĥĥ": 3006,
      "Ġinternet": 3007,
      "sion": 3008,
      "ational": 3009,
      "ĠMá»ĺ": 3010,
      "ĠTMDV": 3011,
      "Æ¯á»¢NG": 3012,
      "Ġkáº½m": 3013,
      "EW": 3014,
      "MT": 3015,
      "SI": 3016,
      "UL": 3017,
      "Ġáº£o": 3018,
      "ĺNG": 3019,
      "ľë": 3020,
      "ĠCÃ¡t": 3021,
      "ĠTiÃªn": 3022,
      "ĠngÃ´n": 3023,
      "ĠkhÃ´": 3024,
      "Ġgiáº£n": 3025,
      "ĠÄĲá»ĳi": 3026,
      "ĠCháº¥t": 3027,
      "Ġ26": 3028,
      "ĠPháº©m": 3029,
      "ĠUPCoM": 3030,
      "æµ·": 3031,
      "ĠCorpor": 3032,
      "Æ¯á»ľNG": 3033,
      "ium": 3034,
      "ìļ": 3035,
      "ĳi": 3036,
      "Ġvisa": 3037,
      "Ġsáº¯c": 3038,
      "Ġmáº¡ch": 3039,
      "Ġnháº¹": 3040,
      "Ġgiáº·t": 3041,
      "ĠMalaysia": 3042,
      "ĠBusiness": 3043,
      "Ġlá»±a": 3044,
      "onic": 3045,
      "ĠNháº¥t": 3046,
      "ĠNhiá»ĩt": 3047,
      "ãģ¨": 3048,
      "acebook": 3049,
      "AND": 3050,
      "ĠNHáº¬P": 3051,
      "cean": 3052,
      "ĠTiáº¿ng": 3053,
      "ĠLOGISTICS": 3054,
      "30": 3055,
      "99": 3056,
      "PV": 3057,
      "bl": 3058,
      "ping": 3059,
      "¥ng": 3060,
      "å»": 3061,
      "ĠtrÆ°á»Ľc": 3062,
      "Ġsáº¡c": 3063,
      "ĠHáºŃu": 3064,
      "ĠLONG": 3065,
      "ĠPHÃļ": 3066,
      "tec": 3067,
      "Ġ36": 3068,
      "Ġ09": 3069,
      "ĠTRá»": 3070,
      "áº¢O": 3071,
      "ä»¥": 3072,
      "å¤ĩ": 3073,
      "hip": 3074,
      "çī©": 3075,
      "éĸĭ": 3076,
      "ëĭĪëĭ¤": 3077,
      "port": 3078,
      "sp": 3079,
      "å½": 3080,
      "ŀĭ": 3081,
      "Ġtáº¥t": 3082,
      "ĠÄĳáº¥u": 3083,
      "ĠTuy": 3084,
      "ĠTour": 3085,
      "ĠkÃ©o": 3086,
      "Ġgom": 3087,
      "ĠSan": 3088,
      "ĠPRO": 3089,
      "ĠÄĲÃĢ": 3090,
      "ĠAm": 3091,
      "ĠAir": 3092,
      "ĠKáº¾": 3093,
      "ise": 3094,
      "ĠHotel": 3095,
      "ĠSá»±": 3096,
      "ĠOur": 3097,
      "khu": 3098,
      "ç«ĭ": 3099,
      "åºĶ": 3100,
      "ĠHÃĢNG": 3101,
      "evel": 3102,
      "è¶ħå¤§": 3103,
      "DS": 3104,
      "çł": 3105,
      "ĬNH": 3106,
      "Ġbáº¡": 3107,
      "ĠHá»Ĺ": 3108,
      "Ġthá»©": 3109,
      "ĠBan": 3110,
      "ines": 3111,
      "ĠIoT": 3112,
      "ĠFr": 3113,
      "ä¸ª": 3114,
      "ä¸»": 3115,
      "ĠTá»·": 3116,
      "æĸĩ": 3117,
      "å¿ĥ": 3118,
      "ç§ĳæĬĢ": 3119,
      "ber": 3120,
      "ner": 3121,
      "ra": 3122,
      "®U": 3123,
      "çķ": 3124,
      "ê³": 3125,
      "Ġthuyá»ģn": 3126,
      "ĠthÆ°á»Łng": 3127,
      "ĠNet": 3128,
      "ĠAG": 3129,
      "ĠKáº¿": 3130,
      "ĠrÃ¡p": 3131,
      "lec": 3132,
      "ĠìĿ": 3133,
      "ĠHá»®U": 3134,
      "HA": 3135,
      "bon": 3136,
      "con": 3137,
      "ĠphÆ°á»Ŀng": 3138,
      "Ġbáº¿p": 3139,
      "ĠbÆ¡m": 3140,
      "ĠViá»ĩn": 3141,
      "ĠViÃªn": 3142,
      "ĠMet": 3143,
      "Ġquáº·ng": 3144,
      "ĠÄĲá»Ļng": 3145,
      "Ġchá»£": 3146,
      "äºĭ": 3147,
      "åĬ¨": 3148,
      "ĠSOLUTION": 3149,
      "DE": 3150,
      "color": 3151,
      "Ľ´": 3152,
      "ĠvÆ°á»£t": 3153,
      "ĠCity": 3154,
      "ĠTÃ¢m": 3155,
      "Ġbáº£ng": 3156,
      "ĠbÃ³ng": 3157,
      "Ġdá»¡": 3158,
      "ĠHiá»ĩp": 3159,
      "ĠnÃ³i": 3160,
      "ĠMas": 3161,
      "ĠAg": 3162,
      "Ġnghá»ĭ": 3163,
      "ĠThan": 3164,
      "aig": 3165,
      "ĠRÆ°á»£u": 3166,
      "ĠHá»¯u": 3167,
      "ìĿ¸": 3168,
      "obile": 3169,
      "onesia": 3170,
      "ĠMá»ĺT": 3171,
      "//": 3172,
      "FC": 3173,
      "ĠlÃ²ng": 3174,
      "á»Ļm": 3175,
      "Ġga": 3176,
      "ĠnhÃ¬n": 3177,
      "chÄĥm": 3178,
      "ĠxuyÃªn": 3179,
      "ĠxÃºc": 3180,
      "ĠTriá»ĥn": 3181,
      "its": 3182,
      "åħ³": 3183,
      "æľ¬": 3184,
      "ĠLá»¯": 3185,
      "ĠKhoa": 3186,
      "ĠNá»ĺI": 3187,
      "Vietnam": 3188,
      "ĠCapital": 3189,
      "æ¡Ī": 3190,
      "ire": 3191,
      "ton": 3192,
      "uáº¥n": 3193,
      "èª": 3194,
      "éĹ": 3195,
      "Ġtáº¡p": 3196,
      "Ġcá»ĳ": 3197,
      "ĠTÃ²a": 3198,
      "Ġháº¡ng": 3199,
      "ĠbÆ°u": 3200,
      "Ġblockchain": 3201,
      "ĠnÃ³ng": 3202,
      "ĠVÅ©": 3203,
      "ĠPar": 3204,
      "ama": 3205,
      "ĠÄĲa": 3206,
      "ant": 3207,
      "Ã²i": 3208,
      "ors": 3209,
      "ĠFacebook": 3210,
      "Ġ35": 3211,
      "ĠOcean": 3212,
      "Iá»ĨM": 3213,
      "æĸĻ": 3214,
      "ternational": 3215,
      "gray": 3216,
      "Ġná»£": 3217,
      "PO": 3218,
      "Ph": 3219,
      "cess": 3220,
      "work": 3221,
      "wbu": 3222,
      "åĢ": 3223,
      "èĭ": 3224,
      "Ħë": 3225,
      "ĠlÃ¡": 3226,
      "Ġsh": 3227,
      "ĠsÃ¡p": 3228,
      "ĠmÃ¡i": 3229,
      "Ġbiáº¿t": 3230,
      "ĠVinh": 3231,
      "ĠVPS": 3232,
      "ĠSup": 3233,
      "Ġhosting": 3234,
      "ĠDung": 3235,
      "ĠLE": 3236,
      "ĠLáº¯p": 3237,
      "ĠChÆ°Æ¡ng": 3238,
      "ĠkhuÃ´n": 3239,
      "ĠÄĲá»ĺNG": 3240,
      "able": 3241,
      "ĠÄĳoÃ¡n": 3242,
      "ä½ĵ": 3243,
      "ĠApp": 3244,
      "ĠSEO": 3245,
      "Ġoff": 3246,
      "point": 3247,
      "://": 3248,
      "HI": 3249,
      "UB": 3250,
      "ning": 3251,
      "æ¨": 3252,
      "èĪ": 3253,
      "é¡": 3254,
      "ĠmÃłn": 3255,
      "ĠVáº¥n": 3256,
      "ĠDWT": 3257,
      "ision": 3258,
      "ĠCHÃį": 3259,
      "Ġë°": 3260,
      "éĿ¢": 3261,
      "ĠDOANH": 3262,
      ",...": 3263,
      "09": 3264,
      "43": 3265,
      "sá»": 3266,
      "ÄĤN": 3267,
      "åĳ": 3268,
      "æ¯": 3269,
      "èģ": 3270,
      "ĠlÃ¢m": 3271,
      "ĠkÃ¨m": 3272,
      "Ġgas": 3273,
      "ĠxÃŃ": 3274,
      "ãĥª": 3275,
      "ication": 3276,
      "ĠChá»£": 3277,
      "log": 3278,
      "low": 3279,
      "áº¤n": 3280,
      "ourc": 3281,
      "ĠThuáºŃt": 3282,
      "ĠPhá»¥": 3283,
      "ĠIndustr": 3284,
      "ĠSSL": 3285,
      "ä¼ļç¤¾": 3286,
      "03": 3287,
      "04": 3288,
      "OB": 3289,
      "RC": 3290,
      "SA": 3291,
      "hÃłng": 3292,
      "åł": 3293,
      "æ°": 3294,
      "è¾": 3295,
      "ê¸°": 3296,
      "Ł¥": 3297,
      "ĠCOR": 3298,
      "Ġháº§m": 3299,
      "ĠsÃ©t": 3300,
      "ĠHÆ°Æ¡ng": 3301,
      "ĠSoft": 3302,
      "Ġphá»©c": 3303,
      "Ġ27": 3304,
      "ĠTre": 3305,
      "ĠrÃłng": 3306,
      "ãģ¯": 3307,
      "ĠHotline": 3308,
      "æľ¯": 3309,
      "eco": 3310,
      "Ġbá»ģ": 3311,
      "khÃ¡ch": 3312,
      "Ġká»·": 3313,
      "obot": 3314,
      "åľ°": 3315,
      "ä½ľ": 3316,
      "çĲĥ": 3317,
      "ĠIndonesia": 3318,
      "ĠCompany": 3319,
      "ç¨ĭ": 3320,
      "evelop": 3321,
      "400": 3322,
      "88": 3323,
      "Tr": 3324,
      "br": 3325,
      "gia": 3326,
      "ier": 3327,
      "ld": 3328,
      "odu": 3329,
      "æĽ´": 3330,
      "ĠTV": 3331,
      "Ġháº¥p": 3332,
      "Ġmu": 3333,
      "Ġmáº£ng": 3334,
      "ĠHáº¢I": 3335,
      "Ġxu": 3336,
      "ĠBE": 3337,
      "Ġcá»©ng": 3338,
      "ĠThÄĥng": 3339,
      "ence": 3340,
      "email": 3341,
      "ica": 3342,
      "ĠSá»Ĳ": 3343,
      "ÃĤM": 3344,
      "ÆłN": 3345,
      "ade": 3346,
      "earch": 3347,
      "ä¸ĵä¸ļ": 3348,
      "è½¦": 3349,
      "aigon": 3350,
      "SM": 3351,
      "cÆ¡": 3352,
      "åİ": 3353,
      "èĲ": 3354,
      "nguyÃªn": 3355,
      "ĠÄĳáº³ng": 3356,
      "ĠlÃµi": 3357,
      "ĠdÃ©p": 3358,
      "ĠnÃ©n": 3359,
      "Ġtá»ıa": 3360,
      "ĠLáº¡t": 3361,
      "ĠKiáº¿n": 3362,
      "ĠKHO": 3363,
      "ĠPhÆ°á»Ŀng": 3364,
      "Ġro": 3365,
      "ĠNga": 3366,
      "Ġnhuá»Ļm": 3367,
      "ãĥ«": 3368,
      "ĠHosting": 3369,
      "ical": 3370,
      "ous": 3371,
      "ase": 3372,
      "Ġ2014": 3373,
      "Äĳá»ĵ": 3374,
      "ARE": 3375,
      "Ġ150": 3376,
      "è´¹": 3377,
      "æµģ": 3378,
      "è¡Į": 3379,
      "åĩº": 3380,
      "BC": 3381,
      "vest": 3382,
      "Ġliá»ģn": 3383,
      "ĠkÃŃn": 3384,
      "Ġvá»ı": 3385,
      "Ġxa": 3386,
      "ĠLÆ¯á»¢NG": 3387,
      "ĠTháº¿": 3388,
      "Ġ29": 3389,
      "Ġthuá»·": 3390,
      "ĠRE": 3391,
      "ÃĢI": 3392,
      "ãĤ¤": 3393,
      "ĠTRUNG": 3394,
      "Ġ400": 3395,
      "áº¢NG": 3396,
      "EST": 3397,
      "UYÃĬN": 3398,
      "Ġê²": 3399,
      "è¦ģ": 3400,
      "ĠCorporation": 3401,
      "36": 3402,
      "RP": 3403,
      "ly": 3404,
      "¢P": 3405,
      "Ġáº¤n": 3406,
      "ĠCNC": 3407,
      "ĠdÃµi": 3408,
      "Ġbá»ĳ": 3409,
      "ĠbÃ²": 3410,
      "ĠHoÃłn": 3411,
      "ĠVáº¬N": 3412,
      "ĠSER": 3413,
      "ĠÄĲá»Ļ": 3414,
      "ĠBáº±ng": 3415,
      "omin": 3416,
      "app": 3417,
      "VIET": 3418,
      "ota": 3419,
      "ife": 3420,
      "æĶ¯æĮģ": 3421,
      "HP": 3422,
      "nÆ°á»Ľc": 3423,
      "vi": 3424,
      "§i": 3425,
      "éĶ": 3426,
      "ĠÃ": 3427,
      "įt": 3428,
      "ĠtrÃł": 3429,
      "ĠTas": 3430,
      "ĠdÃŃnh": 3431,
      "ĠbÃ´ng": 3432,
      "Ġbá»ķ": 3433,
      "ĠnghÃ¬n": 3434,
      "anc": 3435,
      "ergy": 3436,
      "ĠTrÃŃ": 3437,
      "ãģŁ": 3438,
      "ÃģY": 3439,
      "Ġ2002": 3440,
      "ä¸İ": 3441,
      "ream": 3442,
      "å®¹": 3443,
      "quáº£ng": 3444,
      "ĠHOSE": 3445,
      "ìĿ´": 3446,
      "2025": 3447,
      "Ġ2025": 3448,
      "æĿĲ": 3449,
      "ãģĹãģ¦": 3450,
      "NgÃ¢n": 3451,
      "25": 3452,
      "66": 3453,
      "DP": 3454,
      "bre": 3455,
      "oy": 3456,
      "tps": 3457,
      "ä¹": 3458,
      "æ©": 3459,
      "ç¾": 3460,
      "ĭu": 3461,
      "ĠÄĳá»ĳt": 3462,
      "ĠtrÃ¹ng": 3463,
      "ĠlÃ²": 3464,
      "ĠlÃ¡t": 3465,
      "Ġtháº»": 3466,
      "ĠchÃ¢m": 3467,
      "ĠgiÃłn": 3468,
      "ĠquÃ¢n": 3469,
      "001": 3470,
      "ĠAL": 3471,
      "ĠANH": 3472,
      "ĠÄĳÃ£i": 3473,
      "ĠOr": 3474,
      "ĠâĢľ": 3475,
      "ONE": 3476,
      "åı¯": 3477,
      "åĬŀ": 3478,
      "TEK": 3479,
      "å®ļ": 3480,
      "Ġcont": 3481,
      "íķĺ": 3482,
      "å±ķ": 3483,
      "Æ¯á»¢C": 3484,
      "è§£": 3485,
      "èµĦ": 3486,
      "ĠNgá»įc": 3487,
      "çłĶ": 3488,
      "HC": 3489,
      "ey": 3490,
      "font": 3491,
      "mÃ¡y": 3492,
      "ss": 3493,
      "top": 3494,
      "æĥ": 3495,
      "Ġbáº¯t": 3496,
      "chuyá»ĥn": 3497,
      "ĠHN": 3498,
      "ĠSI": 3499,
      "ĠSinh": 3500,
      "ĠSen": 3501,
      "ĠBu": 3502,
      "ĠhÃłn": 3503,
      "ĠThÃ©p": 3504,
      "ĠINTER": 3505,
      "ory": 3506,
      "Ġnhá»Ŀ": 3507,
      "thu": 3508,
      "ä¸Ĭ": 3509,
      "ERS": 3510,
      "åĬł": 3511,
      "que": 3512,
      "ĠStudio": 3513,
      "2009": 3514,
      "å¹¿": 3515,
      "Iáº¾N": 3516,
      "çīĮ": 3517,
      "æķĪ": 3518,
      "éĩĳ": 3519,
      "ìĬ¤": 3520,
      "é¢Ĩ": 3521,
      "15": 3522,
      "17": 3523,
      "ATION": 3524,
      "BT": 3525,
      "FE": 3526,
      "we": 3527,
      "ëĬ": 3528,
      "ĠTÃŃn": 3529,
      "ĠTop": 3530,
      "Ġpl": 3531,
      "ĠVÃłng": 3532,
      "Ġnghi": 3533,
      "á»ĵi": 3534,
      "ĠData": 3535,
      "ÃĶI": 3536,
      "ĠXÃĥ": 3537,
      "Ġres": 3538,
      "ĠQuáº¥t": 3539,
      "ary": 3540,
      "ĠVIá»Ĩ": 3541,
      "ĠKhÃ¡m": 3542,
      "ĠRiver": 3543,
      "ĠNGá»": 3544,
      "åħī": 3545,
      "ĠNHIá»ĨM": 3546,
      "ĠEnter": 3547,
      "ĠAll": 3548,
      "æĬĢæľ¯": 3549,
      "ĠTECHNOLOGY": 3550,
      "break": 3551,
      "HÃł": 3552,
      "LC": 3553,
      "SS": 3554,
      "bao": 3555,
      "mar": 3556,
      "mÃ´i": 3557,
      "æº": 3558,
      "ç´": 3559,
      "ìĨ": 3560,
      "ĠÆ¯": 3561,
      "ĴNG": 3562,
      "áº¶": 3563,
      "ĠCre": 3564,
      "Ġnha": 3565,
      "ĠHáºłN": 3566,
      "ĠSG": 3567,
      "ĠSK": 3568,
      "ĠSaigon": 3569,
      "ĠLU": 3570,
      "ĠLÃĿ": 3571,
      "ĠAut": 3572,
      "ĠKiÃªn": 3573,
      "Ġ2001": 3574,
      "ĠTRÃģCH": 3575,
      "lex": 3576,
      "ĠInternational": 3577,
      "afe": 3578,
      "åĨħ": 3579,
      "ĠMEDIA": 3580,
      "14": 3581,
      "OC": 3582,
      "gl": 3583,
      "çµ": 3584,
      "ìŀ": 3585,
      "ĠbiÃªn": 3586,
      "ĠHI": 3587,
      "ĠLil": 3588,
      "Ġphá»ķ": 3589,
      "ĠTrÃ¬": 3590,
      "alia": 3591,
      "ãĥĹ": 3592,
      "ãĤī": 3593,
      "aser": 3594,
      "ĠChá»§": 3595,
      "ĠGIá»": 3596,
      "ĠNHÃĤN": 3597,
      "artup": 3598,
      "åħ¨çĲĥ": 3599,
      "ĠHUD": 3600,
      "ency": 3601,
      "ĠVinacomin": 3602,
      "odule": 3603,
      "breakpoint": 3604,
      "Wh": 3605,
      "lá»": 3606,
      "æ¶": 3607,
      "Ĥ¨": 3608,
      "ĠcÃ¡t": 3609,
      "ĠCa": 3610,
      "ĠCÃ¡i": 3611,
      "ĠNáºŃm": 3612,
      "ĠHy": 3613,
      "ĠHong": 3614,
      "ĠSTE": 3615,
      "ĠBI": 3616,
      "Æ°á»Ŀn": 3617,
      "ere": 3618,
      "ĠTráº¡ch": 3619,
      "oly": 3620,
      "use": 3621,
      "à¸Ļ": 3622,
      "ĠìĦ": 3623,
      "DICO": 3624,
      "ĠNHÃĢ": 3625,
      "Ã¨o": 3626,
      "åĵģçīĮ": 3627,
      "Iá»ĢN": 3628,
      "ãĥ¼ãĤ": 3629,
      "éĻħ": 3630,
      "Ġproduc": 3631,
      "åĽ½éĻħ": 3632,
      "ĠTOÃĢN": 3633,
      "Ġgá»įi": 3634,
      "çº¿": 3635,
      "æĻº": 3636,
      "æ³¨": 3637,
      "ĠConsul": 3638,
      "èĩª": 3639,
      "84": 3640,
      "MG": 3641,
      "TR": 3642,
      "VR": 3643,
      "WHO": 3644,
      "nov": 3645,
      "tá»±": 3646,
      "ug": 3647,
      "uts": 3648,
      "Ģà¸": 3649,
      "ľI": 3650,
      "Ġcar": 3651,
      "ĠcÃłng": 3652,
      "ĠÄĳáº¡p": 3653,
      "ĠCÆł": 3654,
      "ĠTower": 3655,
      "Ġsáº½": 3656,
      "ĠmÃ³n": 3657,
      "ĠSa": 3658,
      "ĠDa": 3659,
      "ĠLÃ½": 3660,
      "ĠGen": 3661,
      "ĠTá»¬": 3662,
      "Ġbá»ĥ": 3663,
      "à¹Ģà¸": 3664,
      "ĠTHá»°C": 3665,
      "ĠNghiÃªn": 3666,
      "shine": 3667,
      "çĶµåŃĲ": 3668,
      "ĠCloud": 3669,
      "èĤ¡": 3670,
      "éĸĭçĻ": 3671,
      "Ġmuá»ĳn": 3672,
      "18": 3673,
      "BA": 3674,
      "DG": 3675,
      "OP": 3676,
      "hÃ³a": 3677,
      "å¥": 3678,
      "ë¥": 3679,
      "Ġá»ĳp": 3680,
      "ģà¸": 3681,
      "ĠÄĳÃ¢y": 3682,
      "Ġtráº£": 3683,
      "ĠTIN": 3684,
      "ĠTik": 3685,
      "Ġdigital": 3686,
      "ĠNÄĤNG": 3687,
      "ĠHá»Ĩ": 3688,
      "ĠMua": 3689,
      "á»ĳm": 3690,
      "ĠDE": 3691,
      "ĠLÃª": 3692,
      "ano": 3693,
      "Ġlá»Ŀi": 3694,
      "erver": 3695,
      "aly": 3696,
      "ĠERP": 3697,
      "ĠUB": 3698,
      "ãĤµ": 3699,
      "olution": 3700,
      "ilding": 3701,
      "agr": 3702,
      "ated": 3703,
      "ĠStar": 3704,
      "ìłķ": 3705,
      "èĲ¥": 3706,
      "åĬŀåħ¬": 3707,
      "Nh": 3708,
      "TG": 3709,
      "aS": 3710,
      "aw": 3711,
      "ative": 3712,
      "uf": 3713,
      "ë¡": 3714,
      "ë¦": 3715,
      "Ġtráº¯ng": 3716,
      "ĠchÃ¢n": 3717,
      "Ġngáº¯n": 3718,
      "ĠbÃªn": 3719,
      "Ġbusiness": 3720,
      "ĠkhÃºc": 3721,
      "Ġthá»ķ": 3722,
      "ĠSc": 3723,
      "ĠMÃģY": 3724,
      "ĠBáº¢O": 3725,
      "ĠhÃłi": 3726,
      "ĠLPG": 3727,
      "ĠrÄĥng": 3728,
      "ĠEL": 3729,
      "ĠKhang": 3730,
      "ĠUp": 3731,
      "ther": 3732,
      "ï¼ļ": 3733,
      "ÃĤU": 3734,
      "Ġ1992": 3735,
      "ITAL": 3736,
      "2006": 3737,
      "á»ĲI": 3738,
      "ĠLIÃĬN": 3739,
      "éĽ»": 3740,
      "ä¿Ŀ": 3741,
      "aza": 3742,
      "å»º": 3743,
      "GO": 3744,
      "è·": 3745,
      "Ġláº¥y": 3746,
      "ĠTU": 3747,
      "Ġchiáº¿t": 3748,
      "Ġcháº©n": 3749,
      "Ġkhiáº¿t": 3750,
      "ĠkhÃ©p": 3751,
      "ĠSe": 3752,
      "ĠSu": 3753,
      "ĠÄĲoÃłn": 3754,
      "Ġcá»įc": 3755,
      "Ġchá»ĭu": 3756,
      "ĠCho": 3757,
      "Ġ120": 3758,
      "ĠXe": 3759,
      "ĠUN": 3760,
      "âĢľ": 3761,
      "åı°": 3762,
      "TING": 3763,
      "INK": 3764,
      "ide": 3765,
      "å®ī": 3766,
      "agement": 3767,
      "ĠMá»ļI": 3768,
      "ervice": 3769,
      "OOD": 3770,
      "ĠProducts": 3771,
      "å®¢æĪ": 3772,
      "èĭ±": 3773,
      "evelopment": 3774,
      "ĠUBND": 3775,
      "28": 3776,
      "FI": 3777,
      "lu": 3778,
      "ric": 3779,
      "Ġ:": 3780,
      "Ġau": 3781,
      "ĠtÃºi": 3782,
      "Ġcá»ķng": 3783,
      "ĠvÃ²ng": 3784,
      "ĠCar": 3785,
      "ĠCenter": 3786,
      "Ġdiá»ħn": 3787,
      "ĠmÃłng": 3788,
      "ĠbÃ¡": 3789,
      "ĠHCM": 3790,
      "ĠSam": 3791,
      "ĠSÆłN": 3792,
      "Ġhá»į": 3793,
      "Ġquay": 3794,
      "ĠDIG": 3795,
      "ĠLáº¡ng": 3796,
      "ĠLab": 3797,
      "ĠKáº¿t": 3798,
      "ĠPhi": 3799,
      "Ġnhá»Ľ": 3800,
      "Ġ2012": 3801,
      "Ġ2013": 3802,
      "ext": 3803,
      "Ġ800": 3804,
      "Ġrá»«ng": 3805,
      "è´¨": 3806,
      "é«ĺç«¯": 3807,
      "ĠOnline": 3808,
      "æīĭ": 3809,
      "æĶ¶": 3810,
      "ĠSunshine": 3811,
      "droid": 3812,
      "ĠÄĲÃĢO": 3813,
      "ourcing": 3814,
      "NO": 3815,
      "ë³": 3816,
      "íĬ": 3817,
      "Ġtháº¡ch": 3818,
      "ĠNÃĶNG": 3819,
      "ĠNEW": 3820,
      "ĠniÃªn": 3821,
      "ĠBÃ¡n": 3822,
      "ĠDe": 3823,
      "ĠLe": 3824,
      "ĠGold": 3825,
      "ĠKhá»": 3826,
      "ering": 3827,
      "ĠIP": 3828,
      "orld": 3829,
      "ĠFor": 3830,
      "Ġrau": 3831,
      "Ġinox": 3832,
      "ĠVid": 3833,
      "åĽ¢": 3834,
      "ĠTrá»¥": 3835,
      "æĹ¥": 3836,
      "æĸ¹æ¡Ī": 3837,
      "VERSE": 3838,
      "çķĮ": 3839,
      "Ġcontent": 3840,
      "ĠLilama": 3841,
      "ENT": 3842,
      "go": 3843,
      "riv": 3844,
      "Ð°": 3845,
      "éĺ": 3846,
      "ĠtrÃ¡ch": 3847,
      "ĠVic": 3848,
      "ĠnghÄ©a": 3849,
      "ĠPE": 3850,
      "ĠPower": 3851,
      "ĠPCB": 3852,
      "ĠÄĲáº¡t": 3853,
      "ĠTháº¡ch": 3854,
      "Ġ110": 3855,
      "ĠIm": 3856,
      "ĠIDICO": 3857,
      "ĠElec": 3858,
      "ãĥł": 3859,
      "Ġ195": 3860,
      "ĠcÆ°ng": 3861,
      "ave": 3862,
      "off": 3863,
      "ĠPVC": 3864,
      "æºĲ": 3865,
      "ĠGIá»ļI": 3866,
      "CR": 3867,
      "NS": 3868,
      "cáº¥p": 3869,
      "iF": 3870,
      "iti": 3871,
      "yl": 3872,
      "ç¶": 3873,
      "ê²": 3874,
      "Ġj": 3875,
      "ĠCáº©m": 3876,
      "Ġtrá»Ļn": 3877,
      "Ġchiá»ģu": 3878,
      "ÃŃa": 3879,
      "amil": 3880,
      "ĠquÃ½": 3881,
      "ĠÄĲáº·t": 3882,
      "ĠDi": 3883,
      "Ġ23": 3884,
      "erm": 3885,
      "ĠTrans": 3886,
      "Ġrobot": 3887,
      "ÃĢNG": 3888,
      "ĠWe": 3889,
      "ĠTRÃį": 3890,
      "Ġ2019": 3891,
      "ĠTá»Ķ": 3892,
      "ĠMá»Ľi": 3893,
      "Ġ1993": 3894,
      "ç»Ł": 3895,
      "ĠLuáºŃt": 3896,
      "æĢ§": 3897,
      "ĠCHÃįNH": 3898,
      "08": 3899,
      "100": 3900,
      "IES": 3901,
      "VT": 3902,
      "face": 3903,
      "way": 3904,
      "æģ": 3905,
      "ì§Ģ": 3906,
      "Ġund": 3907,
      "ĠvÃ´i": 3908,
      "ĠdÃ²": 3909,
      "Ġht": 3910,
      "ĠNa": 3911,
      "Äĥk": 3912,
      "Ġhá»įa": 3913,
      "ĠBÃĮNH": 3914,
      "ĠKong": 3915,
      "ĠPhan": 3916,
      "ens": 3917,
      "ishi": 3918,
      "ĠKháº©u": 3919,
      "ĠÄĳá»©ng": 3920,
      "Å©i": 3921,
      "ading": 3922,
      "ecom": 3923,
      "ĠLá»±c": 3924,
      "kho": 3925,
      "åľĭ": 3926,
      "2024": 3927,
      "Ġê³": 3928,
      "ĠPlaza": 3929,
      "ìĹĲ": 3930,
      "ç³»ç»Ł": 3931,
      "ãĥĪãĥ": 3932,
      "linker": 3933,
      "ä»£çĲĨ": 3934,
      "ĠHOLDINGS": 3935,
      "íĬ¸": 3936,
      "ĠElectr": 3937,
      "OW": 3938,
      "OX": 3939,
      "ock": 3940,
      "xá»Ń": 3941,
      "ç©": 3942,
      "Ġ'": 3943,
      "ĢM": 3944,
      "Ġtáº§n": 3945,
      "ĠcÃ¡n": 3946,
      "nháºŃp": 3947,
      "ĠCE": 3948,
      "ĠMáº¡ng": 3949,
      "ĠMits": 3950,
      "ĠÄĲá»ĵ": 3951,
      "ĠBlog": 3952,
      "ĠGr": 3953,
      "ĠTráº§n": 3954,
      "ĠIt": 3955,
      "ĠENG": 3956,
      "ãĥĨ": 3957,
      "Ġlá»Ľp": 3958,
      "ãĤ°": 3959,
      "åı£": 3960,
      "atform": 3961,
      "ä¸Ńå¿ĥ": 3962,
      "ĠlÃ£m": 3963,
      "ĠEnergy": 3964,
      "Ġ1976": 3965,
      "æ±Ĥ": 3966,
      "ĠResort": 3967,
      "è£½": 3968,
      "Ġgháº¿": 3969,
      "ĠìĿ¸": 3970,
      "ĠSoftware": 3971,
      "ëĬĶ": 3972,
      "CL": 3973,
      "loud": 3974,
      "nel": 3975,
      "Ð¸": 3976,
      "åĶ": 3977,
      "Ġ+": 3978,
      "ĠÄĳáº¡m": 3979,
      "ĠlÆ°á»£t": 3980,
      "ĠTáº£i": 3981,
      "Ġhiá»ĥn": 3982,
      "Ġpháº£i": 3983,
      "ĠHÃ¹ng": 3984,
      "ĠLiÃªm": 3985,
      "ĠLIá»ĨU": 3986,
      "ĠLTD": 3987,
      "ĠGáº¡ch": 3988,
      "ĠXANH": 3989,
      "ĠFI": 3990,
      "thÃ¡ng": 3991,
      "icon": 3992,
      "ĠSá»°": 3993,
      "ash": 3994,
      "ĠWE": 3995,
      "ĠAndroid": 3996,
      "ĠNGUYÃĬN": 3997,
      "Ġ45": 3998,
      "giao": 3999,
      "gies": 4000,
      "Ġthoáº£i": 4001,
      "ELTS": 4002,
      "Ġ1994": 4003,
      "thá»Ŀi": 4004,
      "ìĿĺ": 4005,
      "2021": 4006,
      "íķľ": 4007,
      "actur": 4008,
      "arden": 4009,
      "ĠVIá»ĨN": 4010,
      "éĸĭçĻº": 4011,
      "ufactur": 4012,
      "AX": 4013,
      "HU": 4014,
      "ki": 4015,
      "ten": 4016,
      "Ñģ": 4017,
      "á»©ng": 4018,
      "Ġtáº©y": 4019,
      "Ġphun": 4020,
      "ĠsÃłng": 4021,
      "Ġthe": 4022,
      "ĠthÃŃ": 4023,
      "Ġná»Ĺ": 4024,
      "uyáº¿n": 4025,
      "ĠSD": 4026,
      "ĠSM": 4027,
      "ĠPart": 4028,
      "Ġquáº¡t": 4029,
      "ĠKIá»ĨN": 4030,
      "Ġmá»«ng": 4031,
      "ero": 4032,
      "Ġráº»": 4033,
      "tique": 4034,
      "ĠIELTS": 4035,
      "ÃģI": 4036,
      "ĠRe": 4037,
      "ĠHoÃł": 4038,
      "ãĤĬ": 4039,
      "ï¼ģ": 4040,
      "icro": 4041,
      "outique": 4042,
      "ita": 4043,
      "ĠâĢĶ": 4044,
      "ĠView": 4045,
      "çĶ¢": 4046,
      "åĽŀ": 4047,
      "åĪĽ": 4048,
      "ĠTHá»ĬNH": 4049,
      "Ġ2024": 4050,
      "ÃĴNG": 4051,
      "ÃĵA": 4052,
      "Ġspa": 4053,
      "ĠONE": 4054,
      "139": 4055,
      "blue": 4056,
      "ĠKHOA": 4057,
      "è´¹éĤ®ç®±": 4058,
      "ĠSERVI": 4059,
      "æĥħ": 4060,
      "æĻºèĥ½": 4061,
      "ĠVideo": 4062,
      "EG": 4063,
      "ICO": 4064,
      "KE": 4065,
      "LS": 4066,
      "MO": 4067,
      "PéĤ®ç®±": 4068,
      "Th": 4069,
      "WA": 4070,
      "ll": 4071,
      "å£": 4072,
      "æŀ": 4073,
      "éł": 4074,
      "ĳt": 4075,
      "ĵn": 4076,
      "ĠtÃ¬nh": 4077,
      "ĠcÆ°á»Ŀng": 4078,
      "Ġcá»Ļt": 4079,
      "ĠcÆ°á»Ľi": 4080,
      "ĠÄĳáº¿": 4081,
      "Ġtri": 4082,
      "ĠTáº¢I": 4083,
      "Ġhiá»ĩp": 4084,
      "ĠmÃ¹": 4085,
      "ĠmÃ³ng": 4086,
      "ĠngÃłn": 4087,
      "ĠNÃºi": 4088,
      "ĠHE": 4089,
      "ĠSÃ¡ng": 4090,
      "Ġhá»ıi": 4091,
      "Ġtá»ĵn": 4092,
      "ĠBOT": 4093,
      "ĠhÃło": 4094,
      "ĠDÆ¯á»¢C": 4095,
      "Ġchuyáº¿n": 4096,
      "Ġmá»¡": 4097,
      "ĠEver": 4098,
      "ãģĽ": 4099,
      "ãĥķ": 4100,
      "ĠUS": 4101,
      "ĠTRA": 4102,
      "ents": 4103,
      "igh": 4104,
      "edia": 4105,
      "ĠLá»°C": 4106,
      "å¹³": 4107,
      "ìĿĦ": 4108,
      "Ġrá»§i": 4109,
      "REEN": 4110,
      "ĠNghÄ©a": 4111,
      "ç«Ļ": 4112,
      "oxy": 4113,
      "700": 4114,
      "BB": 4115,
      "KG": 4116,
      "LY": 4117,
      "LAB": 4118,
      "bank": 4119,
      "eam": 4120,
      "fes": 4121,
      "¥y": 4122,
      "ªå¼ı": 4123,
      "êµ": 4124,
      "Ġ,": 4125,
      "ĠÆ°Æ¡ng": 4126,
      "ĠÃĿ": 4127,
      "ĠvÆ°á»Ŀn": 4128,
      "ĠCal": 4129,
      "ĠTu": 4130,
      "ĠTel": 4131,
      "Ġdáº¯t": 4132,
      "Ġsáº¥y": 4133,
      "Ġtháº§n": 4134,
      "Ġbá»ĳc": 4135,
      "Ġxáº¥u": 4136,
      "ĠSte": 4137,
      "ĠSCI": 4138,
      "ĠMIá»ĢN": 4139,
      "iáº¿p": 4140,
      "ĠÄĲiá»ģn": 4141,
      "ĠGo": 4142,
      "ĠXÆ°á»Łng": 4143,
      "ĠPHÃĤN": 4144,
      "ted": 4145,
      "tegr": 4146,
      "ĠUy": 4147,
      "Ġ37": 4148,
      "Æ¯NG": 4149,
      "åĬŁ": 4150,
      "Ġ600": 4151,
      "anding": 4152,
      "own": 4153,
      "ĠQUáº¢N": 4154,
      "ç»ı": 4155,
      "ubishi": 4156,
      "é«ĺæķĪ": 4157,
      "ĠNews": 4158,
      "áº®C": 4159,
      "ĠASIA": 4160,
      "è®¾å¤ĩ": 4161,
      "VIETNAM": 4162,
      "æ©Ł": 4163,
      "ë¦¬": 4164,
      "ĠMitsubishi": 4165,
      "HT": 4166,
      "Tok": 4167,
      "UE": 4168,
      "bot": 4169,
      "chá»": 4170,
      "care": 4171,
      "linh": 4172,
      "ri": 4173,
      "rus": 4174,
      "ual": 4175,
      "èĢ": 4176,
      "ìľ": 4177,
      "Ġac": 4178,
      "Īĺ": 4179,
      "Ġclinker": 4180,
      "ĠvÃ¬": 4181,
      "ĠCÆ°á»Ŀng": 4182,
      "ĠComm": 4183,
      "ĠTá»Ń": 4184,
      "ĠTÃį": 4185,
      "ĠdÃ¡n": 4186,
      "Ġpha": 4187,
      "ĠthÃ´": 4188,
      "Ġtháº¥p": 4189,
      "Ġtháº¥y": 4190,
      "Ġboutique": 4191,
      "ĠSX": 4192,
      "ĠSec": 4193,
      "Ġtá»įa": 4194,
      "ĠBL": 4195,
      "ĠDÆ¯ÆłNG": 4196,
      "Ġcá»Ŀ": 4197,
      "ĠTháº£o": 4198,
      "Ġá»§y": 4199,
      "ĠTra": 4200,
      "tim": 4201,
      "áº·n": 4202,
      "ĠEPC": 4203,
      "ĠFab": 4204,
      "Ġgiá»Ŀ": 4205,
      "ree": 4206,
      "Ġinter": 4207,
      "à¸´": 4208,
      "ĠInvest": 4209,
      "ĠCHÃĤU": 4210,
      "ĠMá»¥c": 4211,
      "Ġ9001": 4212,
      "ORT": 4213,
      "ĠQUáº¢NG": 4214,
      "ATA": 4215,
      "MEX": 4216,
      "ĠPhá»¥c": 4217,
      "çĽ®": 4218,
      "å±ŀ": 4219,
      "ĠíĻ": 4220,
      "ä¼ģæ¥Ń": 4221,
      "éĩı": 4222,
      "press": 4223,
      "è¨Ń": 4224,
      "åŁŁ": 4225,
      "æ´»": 4226,
      "ahoo": 4227,
      "ĠSkip": 4228,
      "ä¸ªäºº": 4229,
      "éĶĢ": 4230,
      "çłĶåıĳ": 4231,
      "ë¡ľ": 4232,
      "å®īåħ¨": 4233,
      "åĶ®": 4234,
      "35": 4235,
      "CF": 4236,
      "dá»ĩt": 4237,
      "ress": 4238,
      "ta": 4239,
      "xit": 4240,
      "é£": 4241,
      "éĵ": 4242,
      "íĻ": 4243,
      "Ħä»¶": 4244,
      "ĠÄĳáº£o": 4245,
      "ĠÄĳáºŃu": 4246,
      "iá»ħ": 4247,
      "ĠCol": 4248,
      "Ġtriáº¿t": 4249,
      "ĠtrÆ°ng": 4250,
      "Ġly": 4251,
      "Ġlaser": 4252,
      "Ġde": 4253,
      "áº£y": 4254,
      "Ġhay": 4255,
      "Ġthiá»ĥu": 4256,
      "Ġdá»«a": 4257,
      "ĠnhÃºng": 4258,
      "ĠHáºł": 4259,
      "ĠVÃł": 4260,
      "ĠVáº¡n": 4261,
      "ĠVáº¬T": 4262,
      "ĠPR": 4263,
      "iáº¿c": 4264,
      "ĠDesign": 4265,
      "Ġchá»Ĺ": 4266,
      "ĠTrÃł": 4267,
      "ari": 4268,
      "ĠQuÃ¢n": 4269,
      "ĠIND": 4270,
      "rom": 4271,
      "á»ĩm": 4272,
      "ä¸ĭ": 4273,
      "à¸§": 4274,
      "Ġkhá»ĳi": 4275,
      "ĠHá»¢P": 4276,
      "IND": 4277,
      "ĠMá»ĢM": 4278,
      "ä¸ļåĬ¡": 4279,
      "NATION": 4280,
      "æµĭ": 4281,
      "Ġ1989": 4282,
      "Ġèģ": 4283,
      "ĠCONS": 4284,
      "NgÃły": 4285,
      "åĭķ": 4286,
      "ãĤ·ãĥ": 4287,
      "ĠSOLUTIONS": 4288,
      "ĠCORP": 4289,
      "lá»¯": 4290,
      "fession": 4291,
      "Kh": 4292,
      "LP": 4293,
      "MM": 4294,
      "pe": 4295,
      "tour": 4296,
      "ute": 4297,
      "Ã¼": 4298,
      "Ġen": 4299,
      "Ķë": 4300,
      "ĠvÃ¡n": 4301,
      "ĠthÃ¹ng": 4302,
      "ĠbÃ©": 4303,
      "ĠHÃĵA": 4304,
      "ĠMO": 4305,
      "ĠMAY": 4306,
      "ĠÄĲÃĶNG": 4307,
      "ĠBÃ¨": 4308,
      "ĠLam": 4309,
      "ĠLED": 4310,
      "ĠGarden": 4311,
      "ĠPHÃĴNG": 4312,
      "ĠEV": 4313,
      "ĠEDU": 4314,
      "ĠTHIá»ĨU": 4315,
      "row": 4316,
      "CHEM": 4317,
      "ĠOff": 4318,
      "ĠYahoo": 4319,
      "phone": 4320,
      "ĠTRÆ¯á»ľNG": 4321,
      "à¸£": 4322,
      "ids": 4323,
      "VIPéĤ®ç®±": 4324,
      "ĠMá»ı": 4325,
      "ITY": 4326,
      "Æ¯á»ļ": 4327,
      "ipp": 4328,
      "å¹´çļĦ": 4329,
      "Ġstartup": 4330,
      "ound": 4331,
      "åĪ¶éĢł": 4332,
      "ĠARTI": 4333,
      "aterial": 4334,
      "ĠConsulting": 4335,
      "Ġcarbon": 4336,
      "ë¥¼": 4337,
      "ªå¼ıä¼ļç¤¾": 4338,
      "29": 4339,
      "BS": 4340,
      "Gè¶ħå¤§": 4341,
      "In": 4342,
      "MD": 4343,
      "VC": 4344,
      "san": 4345,
      "çŁ¥": 4346,
      "éĥ": 4347,
      "éļ": 4348,
      "Ġtáº£n": 4349,
      "ĠCAO": 4350,
      "ĠlÃ¡i": 4351,
      "ĠTÃģC": 4352,
      "Ġheo": 4353,
      "Ġsolution": 4354,
      "ĠmÃ£i": 4355,
      "Ġmodule": 4356,
      "Ġgang": 4357,
      "ĠHÆ¯NG": 4358,
      "ĠSÃ¢n": 4359,
      "ĠSUN": 4360,
      "Ġnghe": 4361,
      "ĠMD": 4362,
      "ĠMin": 4363,
      "aman": 4364,
      "ĠBiá»ĥn": 4365,
      "ĠBá»ĭ": 4366,
      "ĠDuy": 4367,
      "ĠKCN": 4368,
      "tex": 4369,
      "ĠFl": 4370,
      "ĠThá»Ŀi": 4371,
      "2011": 4372,
      "à¸ļ": 4373,
      "adem": 4374,
      "ĠViettel": 4375,
      "ROE": 4376,
      "ĠKHÃį": 4377,
      "2008": 4378,
      "ĠHOÃĢNG": 4379,
      "ç½ĳæĺĵVIPéĤ®ç®±": 4380,
      "æ¸¯": 4381,
      "ĠINTERNATION": 4382,
      "ĠINTERNATIONAL": 4383,
      "16": 4384,
      "26": 4385,
      "600": 4386,
      "DM": 4387,
      "DN": 4388,
      "SV": 4389,
      "UK": 4390,
      "XP": 4391,
      "get": 4392,
      "ks": 4393,
      "poxy": 4394,
      "viá»ħn": 4395,
      "çľ": 4396,
      "è²": 4397,
      "Ġæĸ°": 4398,
      "Ġcart": 4399,
      "ĠÄĳÆ°Æ¡ng": 4400,
      "ĠÄĳÃŃch": 4401,
      "Ġlá»ĳp": 4402,
      "ĠTáº¥t": 4403,
      "ĠpháºŃn": 4404,
      "ĠthÃ¡ch": 4405,
      "ĠthÄĥm": 4406,
      "ĠchÃ¨": 4407,
      "Ġbi": 4408,
      "ĠSystem": 4409,
      "ames": 4410,
      "ĠBáº¡ch": 4411,
      "Ġtrá»¥c": 4412,
      "ĠKINH": 4413,
      "ĠNghá»": 4414,
      "ĠNgÃłnh": 4415,
      "ĠEco": 4416,
      "ĠKhÃ´ng": 4417,
      "ãĤ¯": 4418,
      "pha": 4419,
      "æľĢ": 4420,
      "Ġìŀ": 4421,
      "ility": 4422,
      "eck": 4423,
      "å¤©": 4424,
      "CTCP": 4425,
      "ĠZalo": 4426,
      "ĠHOME": 4427,
      "ìĿ´ì": 4428,
      "2022": 4429,
      "ube": 4430,
      "åĲĮ": 4431,
      "ive": 4432,
      "Ġepoxy": 4433,
      "æķ°": 4434,
      "ìĹħ": 4435,
      "ount": 4436,
      "Ġé¦": 4437,
      "ĠCRM": 4438,
      "onics": 4439,
      "æ¨¡": 4440,
      "ĠCONSUL": 4441,
      "ĠARTIVERSE": 4442,
      "86": 4443,
      "ATE": 4444,
      "HD": 4445,
      "LD": 4446,
      "dc": 4447,
      "ne": 4448,
      "ple": 4449,
      "xi": 4450,
      "xÄĥng": 4451,
      "©t": 4452,
      "æĦ": 4453,
      "èİ": 4454,
      "Ġam": 4455,
      "Ġvang": 4456,
      "ĠlÃ£i": 4457,
      "Ġpháº£n": 4458,
      "Ġkm": 4459,
      "Ġthang": 4460,
      "Ġtháº¥m": 4461,
      "Ġngáº§m": 4462,
      "ĠHe": 4463,
      "ĠHÃĴ": 4464,
      "ĠMED": 4465,
      "ĠPre": 4466,
      "ĠPark": 4467,
      "ĠquÃ¡n": 4468,
      "ĠBig": 4469,
      "ĠLiá»ĩu": 4470,
      "ĠLAB": 4471,
      "ĠGOL": 4472,
      "ĠKiá»ĥm": 4473,
      "ĠChu": 4474,
      "ĠNhu": 4475,
      "Ġ38": 4476,
      "ĠThá»¥y": 4477,
      "omes": 4478,
      "ashi": 4479,
      "ĠOp": 4480,
      "TIC": 4481,
      "truc": 4482,
      "áº¹o": 4483,
      "å®ĺ": 4484,
      "ĠTá»±": 4485,
      "Ġcuá»Ļn": 4486,
      "2023": 4487,
      "Ġê¸°": 4488,
      "ĠÄĳá»ģu": 4489,
      "ãģĻãĤĭ": 4490,
      "ĠPLAS": 4491,
      "çĶŁäº§": 4492,
      "åĭĻ": 4493,
      "ĠMyan": 4494,
      "ìĭľ": 4495,
      "brid": 4496,
      "Ġnhá»Ŀn": 4497,
      "ĠCaCO": 4498,
      "ĠTikTok": 4499,
      "å®¢æĪ·": 4500,
      "BI": 4501,
      "FF": 4502,
      "IK": 4503,
      "ION": 4504,
      "OY": 4505,
      "UA": 4506,
      "káº¿t": 4507,
      "Â²": 4508,
      "ìĸ": 4509,
      "ðŁ": 4510,
      "ĠtÄ©nh": 4511,
      "ĠCáº¦U": 4512,
      "ĠTuyÃªn": 4513,
      "Ġkáº¹o": 4514,
      "Ġcháº¯c": 4515,
      "Ġman": 4516,
      "ĠNINH": 4517,
      "Ġnáº·ng": 4518,
      "Ġnáº¡p": 4519,
      "ĠgiÃ£n": 4520,
      "ĠSA": 4521,
      "ĠSINH": 4522,
      "ĠMáº·t": 4523,
      "ĠÄĲÃ¢y": 4524,
      "ĠBiáº¿n": 4525,
      "ĠBáº®C": 4526,
      "ĠPháº£": 4527,
      "tif": 4528,
      "ĠECO": 4529,
      "ãģĭ": 4530,
      "ĠTHÃģI": 4531,
      "room": 4532,
      "ets": 4533,
      "ĠSá»©": 4534,
      "ĠWater": 4535,
      "SEAN": 4536,
      "ANS": 4537,
      "ecial": 4538,
      "ĠMá»¸": 4539,
      "ÃĬU": 4540,
      "Ġ1996": 4541,
      "è¿Ľ": 4542,
      "Ġrá»Ŀi": 4543,
      "å¼Ģ": 4544,
      "ĠBá»ī": 4545,
      "ä¸ŃåĽ½": 4546,
      "å¯Ĩ": 4547,
      "AVEL": 4548,
      "çİĩ": 4549,
      "ustom": 4550,
      "ìļ©": 4551,
      "çī©æµģ": 4552,
      "åºĶçĶ¨": 4553,
      "ĠAgency": 4554,
      "\":": 4555,
      ");": 4556,
      "300": 4557,
      "757": 4558,
      "83": 4559,
      "ENG": 4560,
      "RON": 4561,
      "giá»": 4562,
      "ners": 4563,
      "¥p": 4564,
      "Ð¾": 4565,
      "å¢": 4566,
      "çĤ": 4567,
      "Ġus": 4568,
      "Ġcáº©u": 4569,
      "Ġtrá»Ļi": 4570,
      "ĠTáº§m": 4571,
      "ĠTá»ĳt": 4572,
      "ĠTKV": 4573,
      "ĠTÃĤM": 4574,
      "ĠhÆ°á»Łng": 4575,
      "Ġhuáº¥n": 4576,
      "ĠsÃ³ng": 4577,
      "ĠmÃ¡t": 4578,
      "Ġmobile": 4579,
      "Ġngon": 4580,
      "Ġbá»ķng": 4581,
      "ĠHP": 4582,
      "ĠHuy": 4583,
      "Ġniá»ģm": 4584,
      "ĠSÃª": 4585,
      "ĠMáº¶": 4586,
      "ĠPC": 4587,
      "ĠBáº¤T": 4588,
      "ĠBIM": 4589,
      "ĠDel": 4590,
      "Ġtrá»«": 4591,
      "ĠAC": 4592,
      "ĠAM": 4593,
      "ĠThÆ°": 4594,
      "ĠThiá»ĩn": 4595,
      "Ġsá»ī": 4596,
      "Ġ250": 4597,
      "ĠNghi": 4598,
      "ĠPHÆ¯ÆłNG": 4599,
      "esh": 4600,
      "ãģı": 4601,
      "ä¸ľ": 4602,
      "âĢĻ": 4603,
      "ĠTRAVEL": 4604,
      "åħĪ": 4605,
      "à¸²": 4606,
      "ä»ĭ": 4607,
      "ARA": 4608,
      "ĠTá»īnh": 4609,
      "ows": 4610,
      "Ġngá»įt": 4611,
      "Iá»Ĥ": 4612,
      "è´§": 4613,
      "æĹł": 4614,
      "ĠìĹ°": 4615,
      "ìĦľ": 4616,
      "éĽĨåĽ¢": 4617,
      "Ġhttps": 4618,
      "Æ¯á»ļC": 4619,
      "STE": 4620,
      "UDI": 4621,
      "lÆ°u": 4622,
      "Ä¨": 4623,
      "åŀĭ": 4624,
      "Ġun": 4625,
      "ĠÄĳÃłi": 4626,
      "ĠCas": 4627,
      "Ġmong": 4628,
      "Ġbáº¡c": 4629,
      "Ġnháº¯n": 4630,
      "Ġkhuyáº¿n": 4631,
      "ĠHai": 4632,
      "Ġxá»": 4633,
      "ĠSU": 4634,
      "ĠSY": 4635,
      "ĠSil": 4636,
      "ĠLAN": 4637,
      "ĠLáº¡c": 4638,
      "ĠGEN": 4639,
      "anel": 4640,
      "ĠTháº¡nh": 4641,
      "Ġchá»¥p": 4642,
      "ĠNháºŃn": 4643,
      "ese": 4644,
      "ĠEduc": 4645,
      "ĠCá»§": 4646,
      "ãĥŃ": 4647,
      "acera": 4648,
      "asy": 4649,
      "Ġìķ": 4650,
      "ape": 4651,
      "trÃŃ": 4652,
      "äºĨ": 4653,
      "ecy": 4654,
      "ĠInnov": 4655,
      "ĠJSC": 4656,
      "ations": 4657,
      "Ġ1995": 4658,
      "Ġvirus": 4659,
      "ĠKHÃģ": 4660,
      "à¹ģà¸": 4661,
      "å¼º": 4662,
      "ĠeS": 4663,
      "ĠTechnologies": 4664,
      "å¯¹": 4665,
      "Ġgá»ī": 4666,
      "axi": 4667,
      "ĠSTAR": 4668,
      "æĪĲç«ĭ": 4669,
      "ĠAcadem": 4670,
      "çĶ¢åĵģ": 4671,
      "ãĤ·ãĥ§": 4672,
      "fessional": 4673,
      "Ġsolutions": 4674,
      "BR": 4675,
      "KY": 4676,
      "mo": 4677,
      "ná»Ļi": 4678,
      "vÄĥn": 4679,
      "vid": 4680,
      "ç±": 4681,
      "ëı": 4682,
      "ĦN": 4683,
      "Įë": 4684,
      "ngÃ¢n": 4685,
      "Ġvan": 4686,
      "ĠCer": 4687,
      "ĠCÃ¡o": 4688,
      "ĠCá»Ļng": 4689,
      "Ġláº§n": 4690,
      "ĠTÃĢI": 4691,
      "ĠchÃ¬": 4692,
      "ĠHAL": 4693,
      "ĠVÄĤN": 4694,
      "ĠSon": 4695,
      "ĠShip": 4696,
      "ĠMAR": 4697,
      "ĠÄĲÄĥk": 4698,
      "ĠBÃŃ": 4699,
      "ĠBá»Ļt": 4700,
      "ĠDI": 4701,
      "ĠDr": 4702,
      "ĠDÃ¢n": 4703,
      "ĠGar": 4704,
      "ĠGREEN": 4705,
      "ĠKr": 4706,
      "Ġmá»±c": 4707,
      "ery": 4708,
      "ality": 4709,
      "ĠFin": 4710,
      "Ġ39": 4711,
      "COOL": 4712,
      "ĠHoÃ¡": 4713,
      "ĠThá»«a": 4714,
      "Ġind": 4715,
      "Ġintegr": 4716,
      "à¸Ń": 4717,
      "ĠìĪĺ": 4718,
      "aptop": 4719,
      "adi": 4720,
      "ä»½": 4721,
      "ĠJo": 4722,
      "ineering": 4723,
      "Ġ1999": 4724,
      "ĠæĹ": 4725,
      "ull": 4726,
      "tell": 4727,
      "ĠBá»ı": 4728,
      "çĽĺ": 4729,
      "Ġaxit": 4730,
      "æĿ¥": 4731,
      "æ±½": 4732,
      "ãĥ¼ãĥĪ": 4733,
      "ç®¡çĲĨ": 4734,
      "äºĭæ¥Ń": 4735,
      "éĹ»": 4736,
      "ĠSuper": 4737,
      "Ġresort": 4738,
      "èĤ¡ä»½": 4739,
      "ĠHÃĴA": 4740,
      "79": 4741,
      "80": 4742,
      "FS": 4743,
      "KO": 4744,
      "Uá»": 4745,
      "di": 4746,
      "ji": 4747,
      "marketing": 4748,
      "ww": 4749,
      "£¼": 4750,
      "¥m": 4751,
      "æŃ": 4752,
      "ç¦": 4753,
      "ê·": 4754,
      "Ġad": 4755,
      "Ġex": 4756,
      "ħį": 4757,
      "ĠÄĳem": 4758,
      "ĠÄĳÃºng": 4759,
      "ĠCA": 4760,
      "ĠphÃºc": 4761,
      "ĠmÃ¬": 4762,
      "Ġby": 4763,
      "Ġgáº¯n": 4764,
      "ĠnhÆ°á»£ng": 4765,
      "ĠHD": 4766,
      "ĠHub": 4767,
      "Ġxem": 4768,
      "ĠBT": 4769,
      "ĠDis": 4770,
      "Ġcá»¥c": 4771,
      "ĠlÃłnh": 4772,
      "ĠPHá»": 4773,
      "Ġloáº¡t": 4774,
      "Ġchá»§ng": 4775,
      "outs": 4776,
      "ĠSá»¯a": 4777,
      "ĠOEM": 4778,
      "eld": 4779,
      "phar": 4780,
      "åħį": 4781,
      "2014": 4782,
      "ĠHá»ĺI": 4783,
      "áº¾N": 4784,
      "ĠThuá»ĳc": 4785,
      "éĻĦä»¶": 4786,
      "å·ŀ": 4787,
      "CCC": 4788,
      "Ġ2026": 4789,
      "ç½ĳçĽĺ": 4790,
      "ĠTrá»±c": 4791,
      "ä¸Ģå®¶": 4792,
      "Ġ180": 4793,
      "chool": 4794,
      "è¡ĵ": 4795,
      "ĠManagement": 4796,
      "ê°Ģ": 4797,
      "ĠNetwork": 4798,
      "ĠMaster": 4799,
      "åł±": 4800,
      "NháºŃt": 4801,
      "æīĭæľº": 4802,
      "ĠGolden": 4803,
      "ĠTá»ĶNG": 4804,
      "ĠMyanmar": 4805,
      "UDIO": 4806,
      "ĠAcademy": 4807,
      "DO": 4808,
      "Hub": 4809,
      "LB": 4810,
      "WS": 4811,
      "dá»": 4812,
      "may": 4813,
      "tá»ķ": 4814,
      "xy": 4815,
      "¬ë": 4816,
      "ç·": 4817,
      "éŀĭ": 4818,
      "ĠðŁ": 4819,
      "ĶI": 4820,
      "ĺģ": 4821,
      "ngh": 4822,
      "Ġtáº¯c": 4823,
      "ĠÄĳam": 4824,
      "ĠtrÃ¡ng": 4825,
      "Ġlau": 4826,
      "ĠTp": 4827,
      "ĠTim": 4828,
      "ĠsÆ°u": 4829,
      "Ġsáº¯n": 4830,
      "Ġthiáº¿u": 4831,
      "ĠbÆ°á»Ľc": 4832,
      "ĠHT": 4833,
      "ĠSÃ³c": 4834,
      "ĠSearch": 4835,
      "ĠMAN": 4836,
      "ĠPG": 4837,
      "ĠBR": 4838,
      "ĠBÃª": 4839,
      "ĠBÃ¡ch": 4840,
      "ĠBáº¡c": 4841,
      "ĠDC": 4842,
      "ĠDal": 4843,
      "ins": 4844,
      "ĠTháº¯ng": 4845,
      "Ġthuáº§n": 4846,
      "Ġá»Ĳ": 4847,
      "ĠTráº¡m": 4848,
      "Ġrao": 4849,
      "ĠPHá»ĲI": 4850,
      "ales": 4851,
      "ĠEm": 4852,
      "ĠTHáº¤T": 4853,
      "ĠHom": 4854,
      "åħ·": 4855,
      "ĠVigl": 4856,
      "Ġtop": 4857,
      "Ġìĭ": 4858,
      "áº¹n": 4859,
      "ĠLá»Ľ": 4860,
      "Ġ2020": 4861,
      "ĠCHáº¤T": 4862,
      "åĪĨ": 4863,
      "ACE": 4864,
      "MENT": 4865,
      "ĠSolar": 4866,
      "ova": 4867,
      "ĠHUB": 4868,
      "indows": 4869,
      "Ġ1960": 4870,
      "æİ§": 4871,
      "ealth": 4872,
      "ç¾İ": 4873,
      "åĬłå·¥": 4874,
      "é¢ĨåŁŁ": 4875,
      "Ġproducts": 4876,
      "ë³´": 4877,
      "ĠNhuáºŃn": 4878,
      "giá»Ŀ": 4879,
      "ĠViglacera": 4880,
      "75": 4881,
      "76": 4882,
      "ACH": 4883,
      "Bank": 4884,
      "DT": 4885,
      "ECT": 4886,
      "GROUP": 4887,
      "HG": 4888,
      "Ho": 4889,
      "MK": 4890,
      "OUT": 4891,
      "PE": 4892,
      "PH": 4893,
      "PL": 4894,
      "VS": 4895,
      "fr": 4896,
      "láº¯p": 4897,
      "osite": 4898,
      "xe": 4899,
      "·±": 4900,
      "ÃĻ": 4901,
      "Ðº": 4902,
      "æ£": 4903,
      "éª": 4904,
      "ì¦": 4905,
      "Ġz": 4906,
      "Ķç³»": 4907,
      "Ġcá»ĳc": 4908,
      "ĠÄĳai": 4909,
      "ĠCy": 4910,
      "ĠCare": 4911,
      "ĠTáº¦": 4912,
      "ĠTÃĤY": 4913,
      "Ġsá»ķ": 4914,
      "Ġsup": 4915,
      "Ġchiáº¿c": 4916,
      "Ġbe": 4917,
      "Ġbr": 4918,
      "Ġgá»ĳm": 4919,
      "ĠkhÆ¡i": 4920,
      "ĠHi": 4921,
      "ĠHÆ°á»Ľng": 4922,
      "Ġxáº¡": 4923,
      "ĠSÃģ": 4924,
      "ĠSau": 4925,
      "ĠPin": 4926,
      "ĠPET": 4927,
      "ĠPTS": 4928,
      "ĠBlockchain": 4929,
      "ĠDanh": 4930,
      "ĠLÃĢ": 4931,
      "ĠAss": 4932,
      "ĠKIM": 4933,
      "ĠPhil": 4934,
      "enti": 4935,
      "orts": 4936,
      "ĠVIN": 4937,
      "ĠTHANH": 4938,
      "ãĤĦ": 4939,
      "omation": 4940,
      "ĠWIN": 4941,
      "trang": 4942,
      "ĠÄĲá»¨C": 4943,
      "ĠÄĲá»ĴNG": 4944,
      "urance": 4945,
      "otes": 4946,
      "owroom": 4947,
      "IST": 4948,
      "ĠHOA": 4949,
      "irc": 4950,
      "Ġduyá»ĩt": 4951,
      "à¹ī": 4952,
      "UST": 4953,
      "ĠTMCP": 4954,
      "ĠCOMP": 4955,
      "tainment": 4956,
      "çī¹": 4957,
      "ä¸Ńæĸĩ": 4958,
      "ĠTrá»Ŀi": 4959,
      "æīĵ": 4960,
      "åĨ³": 4961,
      "Ġá»¨NG": 4962,
      "prise": 4963,
      "ĠIII": 4964,
      "Ġcompany": 4965,
      "åīį": 4966,
      "æµ·å¤ĸ": 4967,
      "ä¸»è¦ģ": 4968,
      "view": 4969,
      "æĥħåł±": 4970,
      "ĠDalat": 4971,
      "89": 4972,
      "AA": 4973,
      "OU": 4974,
      "RU": 4975,
      "URE": 4976,
      "der": 4977,
      "kav": 4978,
      "wix": 4979,
      "´Ģ": 4980,
      "Ã¤": 4981,
      "Ļæ¸¯": 4982,
      "Ġtiá»ĩc": 4983,
      "ĠtÃ³c": 4984,
      "Ãłm": 4985,
      "ĠCÃģ": 4986,
      "ĠtrÆ¡n": 4987,
      "Ġtreo": 4988,
      "ĠTIáº¾N": 4989,
      "ĠsÃło": 4990,
      "ĠtháºŃp": 4991,
      "Ġmass": 4992,
      "ĠNET": 4993,
      "Ġback": 4994,
      "ĠkhÄĥn": 4995,
      "ĠHap": 4996,
      "ĠHano": 4997,
      "ĠÄĳá»Ļt": 4998,
      "Æ¡ng": 4999,
      "ĠSer": 5000,
      "ĠSVR": 5001,
      "ĠMek": 5002,
      "ĠMaterial": 5003,
      "ĠBay": 5004,
      "ĠBIT": 5005,
      "ĠBkav": 5006,
      "ĠLÆ°á»£ng": 5007,
      "ĠLink": 5008,
      "air": 5009,
      "Ġ1000": 5010,
      "ĠkhoÃ¡": 5011,
      "ĠICOOL": 5012,
      "ĠFord": 5013,
      "ãĢĮ": 5014,
      "etail": 5015,
      "ãĥ©": 5016,
      "ãĥĻ": 5017,
      "Ġ34": 5018,
      "ĠThá»ĳng": 5019,
      "ĠOut": 5020,
      "atch": 5021,
      "ecor": 5022,
      "TEC": 5023,
      "ĠTá»§": 5024,
      "ASA": 5025,
      "ICS": 5026,
      "éĢŁ": 5027,
      "Ġë³": 5028,
      "Ġëı": 5029,
      "ĠStud": 5030,
      "åį°": 5031,
      "ĠPlus": 5032,
      "æīĢ": 5033,
      "ĠAppl": 5034,
      "Ġìłĳ": 5035,
      "ľë²": 5036,
      "Ġê²Ģ": 5037,
      "è§£åĨ³": 5038,
      "ĠHNX": 5039,
      "ĠÆ¯Æ¡ng": 5040,
      "ĠFabric": 5041,
      "ĠPLASCHEM": 5042,
      "ĠBá»īm": 5043,
      "ĠEducation": 5044,
      "800": 5045,
      "FA": 5046,
      "JC": 5047,
      "OV": 5048,
      "Qu": 5049,
      "boo": 5050,
      "ho": 5051,
      "ka": 5052,
      "ma": 5053,
      "pro": 5054,
      "¦A": 5055,
      "çı": 5056,
      "èī": 5057,
      "Ġåħ³": 5058,
      "ĠtÆ°á»Ŀng": 5059,
      "Ġcá»ĵn": 5060,
      "ĠTT": 5061,
      "Ġpage": 5062,
      "ĠNic": 5063,
      "Ġgá»ĳi": 5064,
      "Ġnáº¯m": 5065,
      "ĠVR": 5066,
      "ĠVisa": 5067,
      "ĠSi": 5068,
      "ĠSo": 5069,
      "ĠSie": 5070,
      "ĠMe": 5071,
      "ĠMÃ´n": 5072,
      "amin": 5073,
      "ĠBar": 5074,
      "ĠBox": 5075,
      "ĠLCD": 5076,
      "ino": 5077,
      "ĠGR": 5078,
      "Æ°Æ¡n": 5079,
      "ĠAMA": 5080,
      "ĠASEAN": 5081,
      "ĠKon": 5082,
      "ĠTrading": 5083,
      "ĠDá»¥c": 5084,
      "ĠQuan": 5085,
      "ays": 5086,
      "ĠICT": 5087,
      "ĠCá»¦A": 5088,
      "ãĢį": 5089,
      "ĠRanh": 5090,
      "ä¸į": 5091,
      "ãĤ£": 5092,
      "ĠYaly": 5093,
      "lean": 5094,
      "ĠìĤ¬": 5095,
      "ĠGIÃģ": 5096,
      "thá»§": 5097,
      "ĠCamera": 5098,
      "ĠTHá»ľI": 5099,
      "Ġprofessional": 5100,
      "æĬĢè¡ĵ": 5101,
      "Ġ1975": 5102,
      "ize": 5103,
      "å¯Į": 5104,
      "ãģĦãģ¾ãģĻ": 5105,
      "éģĵ": 5106,
      "ãģ§ãģĻ": 5107,
      "ĠSOFT": 5108,
      "èªŀ": 5109,
      "é¡µ": 5110,
      "ìĬ¤í": 5111,
      "agrave": 5112,
      "ĠèģĶç³»": 5113,
      "ĠæĹ¥": 5114,
      "tellig": 5115,
      "èĤ¡ä»½æľīéĻĲåħ¬åı¸": 5116,
      "343": 5117,
      "85": 5118,
      "DX": 5119,
      "cao": 5120,
      "ef": 5121,
      "ience": 5122,
      "mer": 5123,
      "má»¹": 5124,
      "sÆ¡n": 5125,
      "{--": 5126,
      "ÑĢ": 5127,
      "æ²": 5128,
      "æĳ": 5129,
      "æĤ¨": 5130,
      "è±": 5131,
      "èĬ": 5132,
      "é¦": 5133,
      "Ġ>": 5134,
      "Ġåħ¬åı¸": 5135,
      "ķìĿ¸": 5136,
      "ĠtÃ¢n": 5137,
      "Ġtech": 5138,
      "Ġco": 5139,
      "Ġven": 5140,
      "ĠÄĳÃ²i": 5141,
      "Ġtre": 5142,
      "ĠhÃ¨": 5143,
      "Ġkeo": 5144,
      "Ġsil": 5145,
      "ĠthÆ¡m": 5146,
      "Ġcháº¡y": 5147,
      "Ġngáº·t": 5148,
      "ĠNP": 5149,
      "ĠbÃło": 5150,
      "ĠbÆ¡i": 5151,
      "ĠxÃł": 5152,
      "ĠgiÃ¡c": 5153,
      "ĠnghiÃªm": 5154,
      "ĠMG": 5155,
      "ĠMÃª": 5156,
      "ĠMáºł": 5157,
      "ĠMET": 5158,
      "ĠPac": 5159,
      "ĠÄĲo": 5160,
      "ĠÄĲÃ¡": 5161,
      "ĠBÃ¡o": 5162,
      "ĠLear": 5163,
      "ĠLeg": 5164,
      "ĠGolf": 5165,
      "ĠAustr": 5166,
      "Ġlá»Ńa": 5167,
      "ĠChÄĥn": 5168,
      "ĠTráº£i": 5169,
      "Ġphá»ĳt": 5170,
      "ĠDá»¯": 5171,
      "ene": 5172,
      "esk": 5173,
      "ĠIC": 5174,
      "ĠEXP": 5175,
      "ĠVIP": 5176,
      "ĠCá»¥m": 5177,
      "Ġ32": 5178,
      "ĠYáº¿n": 5179,
      "ĠYou": 5180,
      "Ġ55": 5181,
      "ĠTRÃĮNH": 5182,
      "åħ¥": 5183,
      "ERG": 5184,
      "à¸µ": 5185,
      "à¸ķ": 5186,
      "atbot": 5187,
      "trap": 5188,
      "æĸ¼": 5189,
      "ĠLot": 5190,
      "ORK": 5191,
      "tstrap": 5192,
      "ELL": 5193,
      "ICE": 5194,
      "ISH": 5195,
      "2007": 5196,
      "åĪ°": 5197,
      "ĠProton": 5198,
      "ACK": 5199,
      "irst": 5200,
      "åľº": 5201,
      "ä½¿": 5202,
      "åįĹ": 5203,
      "star": 5204,
      "ĠDá»¤NG": 5205,
      "ĠTHUáº¬N": 5206,
      "199": 5207,
      "ä¾ĽåºĶ": 5208,
      "ĠPLC": 5209,
      "ĠLÃłm": 5210,
      "éģĭ": 5211,
      "Ġìłľ": 5212,
      "ĠABOUT": 5213,
      "åŁº": 5214,
      "åīµ": 5215,
      "ĠPHÃļC": 5216,
      "ĠIndustrial": 5217,
      "è¡Įä¸ļ": 5218,
      "ĠNGá»ĮC": 5219,
      "ìĨĮ": 5220,
      "ĠKhá»Łi": 5221,
      "ĠVicem": 5222,
      "amily": 5223,
      "ĠTÃįN": 5224,
      "éĥ¨": 5225,
      "å®ĺæĸ¹": 5226,
      "Ġintegrated": 5227,
      "ĠLá»Ľn": 5228,
      "Ġåħ³äºİ": 5229,
      "ĠAustralia": 5230,
      "21": 5231,
      "CES": 5232,
      "RT": 5233,
      "cung": 5234,
      "cáº£ng": 5235,
      "eed": 5236,
      "net": 5237,
      "pp": 5238,
      "so": 5239,
      "}.": 5240,
      "¨ì": 5241,
      "¬¸": 5242,
      "µëĭĪëĭ¤": 5243,
      "å¨": 5244,
      "åģ": 5245,
      "æ§": 5246,
      "ï½": 5247,
      "Ġim": 5248,
      "ĠcÅ©": 5249,
      "Ġváº·t": 5250,
      "ĠvÆ°Æ¡n": 5251,
      "ĠÄĳáº¯c": 5252,
      "ĠÄĳáº¡c": 5253,
      "ĠCI": 5254,
      "ĠTI": 5255,
      "ĠTÃĶ": 5256,
      "ĠphÃºt": 5257,
      "Ġsc": 5258,
      "Ġservices": 5259,
      "Ġserver": 5260,
      "ĠNo": 5261,
      "Ġbo": 5262,
      "ĠHÃłnh": 5263,
      "Ã³t": 5264,
      "ĠMon": 5265,
      "ĠMac": 5266,
      "ĠMob": 5267,
      "ĠMeg": 5268,
      "ĠBro": 5269,
      "ĠBÃ¡i": 5270,
      "ĠDN": 5271,
      "ĠDX": 5272,
      "ĠDevelopment": 5273,
      "ĠLi": 5274,
      "ĠLife": 5275,
      "ĠCá»ķng": 5276,
      "ĠTháº¥t": 5277,
      "ĠKÃ´ng": 5278,
      "ĠChÄĥm": 5279,
      "ĠChÆ°a": 5280,
      "ĠXD": 5281,
      "ĠXÃ£": 5282,
      "ali": 5283,
      "ĠEB": 5284,
      "ĠELE": 5285,
      "ãģķ": 5286,
      "Ġ33": 5287,
      "emium": 5288,
      "ombo": 5289,
      "red": 5290,
      "å®Ł": 5291,
      "ĠLog": 5292,
      "Ġ700": 5293,
      "åĪ©": 5294,
      "è´¸": 5295,
      "ivi": 5296,
      "ĠPhá»ĳ": 5297,
      "Ġeasy": 5298,
      "è®¡": 5299,
      "ãĥ³ãĥ": 5300,
      "è¯·": 5301,
      "ìĬµëĭĪëĭ¤": 5302,
      "ç²¾å¯Ĩ": 5303,
      "ĠTours": 5304,
      "æĽ´å¤ļ": 5305,
      "weight": 5306,
      "ĠAuto": 5307,
      "ĠELMA": 5308,
      "ç©º": 5309,
      "ĠSteel": 5310,
      "ĠPhilipp": 5311,
      "Ġmassage": 5312,
      "è§£åĨ³æĸ¹æ¡Ī": 5313,
      "IZ": 5314,
      "St": 5315,
      "gan": 5316,
      "menu": 5317,
      "set": 5318,
      "ture": 5319,
      "ux": 5320,
      "var": 5321,
      "zi": 5322,
      "¸ë": 5323,
      "Â®": 5324,
      "Ã©c": 5325,
      "å¡": 5326,
      "éķ": 5327,
      "ĠÃ¡nh": 5328,
      "ĺC": 5329,
      "Ġtai": 5330,
      "Ġtem": 5331,
      "Ġclean": 5332,
      "ĠÄĳáºŃm": 5333,
      "ĠÄĳá»ĩm": 5334,
      "ĠCÄĥn": 5335,
      "ĠCHO": 5336,
      "ĠCry": 5337,
      "ĠtrÄĥm": 5338,
      "Ġháº¡nh": 5339,
      "ĠNT": 5340,
      "ĠHÃ£ng": 5341,
      "ĠHealth": 5342,
      "ĠxÃŃch": 5343,
      "Ġthá»«a": 5344,
      "ĠSÄ©": 5345,
      "ĠSÃłn": 5346,
      "ĠService": 5347,
      "ĠSchool": 5348,
      "ĠMT": 5349,
      "ĠPM": 5350,
      "ĠPos": 5351,
      "amping": 5352,
      "ĠBA": 5353,
      "ĠBÃºt": 5354,
      "ĠDIC": 5355,
      "ĠGO": 5356,
      "ĠGu": 5357,
      "ĠGSP": 5358,
      "á»ĭnh": 5359,
      "ĠPharm": 5360,
      "Ã£y": 5361,
      "ĠINT": 5362,
      "ĠKhÃ³a": 5363,
      "ĠFu": 5364,
      "ãĥĭ": 5365,
      "ãĥĿ": 5366,
      "ĠUÃ´ng": 5367,
      "ola": 5368,
      "à¸±": 5369,
      "åıĸ": 5370,
      "sition": 5371,
      "ĠVill": 5372,
      "AST": 5373,
      "Ġ1997": 5374,
      "combank": 5375,
      "à¹Ī": 5376,
      "åĲĦ": 5377,
      "ĠTHá»Ĭ": 5378,
      "Ġprovid": 5379,
      "Ġ1988": 5380,
      "å·¥ç¨ĭ": 5381,
      "æķ´": 5382,
      "shore": 5383,
      "åŃ¦": 5384,
      "ĠContac": 5385,
      "endar": 5386,
      "æİ¥": 5387,
      "ĠAPI": 5388,
      "æĺ¯ä¸Ģå®¶": 5389,
      "ĠSTEM": 5390,
      "utsch": 5391,
      "ufacturing": 5392,
      "ĠPartners": 5393,
      "åĬŁèĥ½": 5394,
      "chá»©ng": 5395,
      "Ġinterface": 5396,
      "ĠíĻķìĿ¸": 5397,
      "éĶĢåĶ®": 5398,
      "éĵ¾": 5399,
      "iá»ħu": 5400,
      "Ġcarton": 5401,
      "ĠPHá»¤": 5402,
      "outsourcing": 5403,
      "nghiÃªn": 5404,
      "ÃĻNG": 5405,
      "éªĮ": 5406,
      "ì¦Ŀ": 5407,
      "Ġê²ĢìĤ¬": 5408,
      "ĠPacif": 5409,
      "'s": 5410,
      "69": 5411,
      "BM": 5412,
      "CY": 5413,
      "ECH": 5414,
      "GL": 5415,
      "LAM": 5416,
      "MAN": 5417,
      "PAR": 5418,
      "Press": 5419,
      "QN": 5420,
      "XÃ¢y": 5421,
      "ble": 5422,
      "free": 5423,
      "han": 5424,
      "ke": 5425,
      "les": 5426,
      "wit": 5427,
      "Ðµ": 5428,
      "ÑĤ": 5429,
      "åĿ": 5430,
      "ç¬": 5431,
      "çĦ": 5432,
      "ìĥ": 5433,
      "íĴ": 5434,
      "Ġíķ": 5435,
      "ĠvÃ´": 5436,
      "ĠvÃŃt": 5437,
      "ĠCÃ¢y": 5438,
      "ĠCÃģO": 5439,
      "Ġlen": 5440,
      "Ġlaptop": 5441,
      "ĠTer": 5442,
      "ĠdáºŃp": 5443,
      "Ġdel": 5444,
      "Ġháº¿t": 5445,
      "ĠphÃ´i": 5446,
      "Ġmáº½": 5447,
      "ĠNA": 5448,
      "ĠNotes": 5449,
      "ĠHÆ¡n": 5450,
      "ĠHAN": 5451,
      "ĠnÃłnh": 5452,
      "ĠMicro": 5453,
      "Ġtá»Ŀ": 5454,
      "ĠLáºł": 5455,
      "ĠGas": 5456,
      "ĠAz": 5457,
      "ĠChem": 5458,
      "ĠNgÆ°á»Ŀi": 5459,
      "ĠQuÃ½": 5460,
      "ori": 5461,
      "tek": 5462,
      "ĠVIC": 5463,
      "ĠTHE": 5464,
      "ãĤª": 5465,
      "CHI": 5466,
      "acy": 5467,
      "acute": 5468,
      "ĠWHO": 5469,
      "ĠWord": 5470,
      "ĠWorld": 5471,
      "entor": 5472,
      "lose": 5473,
      "ARM": 5474,
      "TEX": 5475,
      "Ġ95": 5476,
      "CTOR": 5477,
      "Ġ1998": 5478,
      "ISO": 5479,
      "åĵģè´¨": 5480,
      "ake": 5481,
      "è¿ĩ": 5482,
      "107": 5483,
      "åĮº": 5484,
      "ä¸Ģç«Ļ": 5485,
      "è¶Ĭ": 5486,
      "èĥ½æºĲ": 5487,
      "ãģĹãģ¾ãģĻ": 5488,
      "çĻ»": 5489,
      "ĠSTUDIO": 5490,
      "æĪĳåĢ": 5491,
      "ãģªãģ": 5492,
      "ĠPRODU": 5493,
      "ĠMasan": 5494,
      "åĳĬ": 5495,
      "ĠTasks": 5496,
      "ĠDeutsch": 5497,
      "æģ¯": 5498,
      "ĠElectronics": 5499,
      "ĠCalendar": 5500,
      "ĠSecure": 5501,
      "Ã¼r": 5502,
      "Ġæĸ°éĹ»": 5503,
      "ĠInnovation": 5504,
      "ERGY": 5505,
      "ĠPhilippines": 5506,
      "ĠContacts": 5507,
      "æĪĳåĢĳ": 5508,
      "',": 5509,
      "(--": 5510,
      "AIN": 5511,
      "Gi": 5512,
      "KT": 5513,
      "LL": 5514,
      "VIN": 5515,
      "bod": 5516,
      "da": 5517,
      "dark": 5518,
      "fa": 5519,
      "ger": 5520,
      "lus": 5521,
      "oice": 5522,
      "sung": 5523,
      "Å¨": 5524,
      "Ð½": 5525,
      "éŁ": 5526,
      "Ġapp": 5527,
      "Ĭãĥł": 5528,
      "Ĺä¸ĭ": 5529,
      "á»³": 5530,
      "Ġtiá»ħn": 5531,
      "ĠÄĳÃŃnh": 5532,
      "ĠÄĳan": 5533,
      "há»Ĺ": 5534,
      "ĠTam": 5535,
      "ĠTal": 5536,
      "ĠTÃ´i": 5537,
      "ĠdÃły": 5538,
      "ĠkWh": 5539,
      "Ġcháº¥m": 5540,
      "ĠHA": 5541,
      "ĠVP": 5542,
      "ĠVÆ°Æ¡ng": 5543,
      "ĠMo": 5544,
      "ĠMá»Ļc": 5545,
      "ĠMil": 5546,
      "ĠPort": 5547,
      "ĠÄĲáº¥t": 5548,
      "ĠBK": 5549,
      "ĠBV": 5550,
      "ĠBAT": 5551,
      "ĠBio": 5552,
      "inf": 5553,
      "ĠGel": 5554,
      "ĠAgr": 5555,
      "ĠThÃ¡c": 5556,
      "ĠThÆ°á»£ng": 5557,
      "ĠKO": 5558,
      "ĠKids": 5559,
      "ais": 5560,
      "Ġyáº¿n": 5561,
      "ĠID": 5562,
      "ĠIR": 5563,
      "ĠVá»įng": 5564,
      "ĠESG": 5565,
      "isco": 5566,
      "ĠTHIÃĬN": 5567,
      "etter": 5568,
      "Ġtuyá»ĩt": 5569,
      "Ġwe": 5570,
      "à¸¢": 5571,
      "à¸ª": 5572,
      "ĠÄĲá»ĬNH": 5573,
      "å®ŀ": 5574,
      "Ġcons": 5575,
      "abin": 5576,
      "ç®Ģ": 5577,
      "ĠQUY": 5578,
      "ffc": 5579,
      "íķ´": 5580,
      "å¸Ī": 5581,
      "å·¥ä¸ļ": 5582,
      "å¿«": 5583,
      "æĹĹä¸ĭ": 5584,
      "Ġ139": 5585,
      "åĨĮ": 5586,
      "ĠAds": 5587,
      "ĠPremium": 5588,
      "ĠTiáº¿p": 5589,
      "èĩ´": 5590,
      "ê°ľ": 5591,
      "è³ĩ": 5592,
      "ĠEntertainment": 5593,
      "ĠCreative": 5594,
      "ĠìĦ¤": 5595,
      "ĠSaaS": 5596,
      "ĠDIGITAL": 5597,
      "ãĥĪãĥĬãĥł": 5598,
      "å£«": 5599,
      "å¹³åı°": 5600,
      "3545": 5601,
      "ĠCONSULTING": 5602,
      "å¢ĥ": 5603,
      "ãĥĻãĥĪãĥĬãĥł": 5604,
      "ĠNicecy": 5605,
      "ĠèģĶç³»æĪĳä»¬": 5606,
      "ĠæĹ¥æľ¬": 5607,
      "íĴĪ": 5608,
      ",âĢ¦": 5609,
      "23": 5610,
      "DH": 5611,
      "GE": 5612,
      "IoT": 5613,
      "NB": 5614,
      "Petro": 5615,
      "SK": 5616,
      "SR": 5617,
      "Sh": 5618,
      "UI": 5619,
      "ae": 5620,
      "he": 5621,
      "soft": 5622,
      "tin": 5623,
      "©Ķ": 5624,
      "±ng": 5625,
      "½æ±Ĥ": 5626,
      "è»": 5627,
      "ë§": 5628,
      "ìķ": 5629,
      "ìĽ": 5630,
      "ĸé¡µ": 5631,
      "Ġtaxi": 5632,
      "Ġváº½": 5633,
      "ĠCRE": 5634,
      "ĠlÆ°á»¡ng": 5635,
      "ĠTÃ´n": 5636,
      "ĠTuáº¥n": 5637,
      "Ġkem": 5638,
      "Ġthiá»ĩp": 5639,
      "Ġmen": 5640,
      "Ġmail": 5641,
      "ĠngÃµ": 5642,
      "ĠbÃ¡ch": 5643,
      "ĠkhÃ³": 5644,
      "ĠHiá»ĩu": 5645,
      "Ġnang": 5646,
      "Ġniá»ĩm": 5647,
      "ĠVer": 5648,
      "ĠSJ": 5649,
      "ĠSME": 5650,
      "Ġnghiá»ģn": 5651,
      "Ġtá»¥": 5652,
      "ĠPRE": 5653,
      "ĠPOW": 5654,
      "ĠBl": 5655,
      "ĠBo": 5656,
      "ĠBáº¡n": 5657,
      "ĠBIG": 5658,
      "ĠLáºŃp": 5659,
      "ĠLin": 5660,
      "ĠLiÃªu": 5661,
      "ĠGl": 5662,
      "Ġchá»Ł": 5663,
      "ĠKI": 5664,
      "ĠKID": 5665,
      "ĠKWh": 5666,
      "ĠChÃło": 5667,
      "ĠTrÄĥng": 5668,
      "ara": 5669,
      "ĠEv": 5670,
      "ĠFA": 5671,
      "ĠRF": 5672,
      "ĠÄĳá»¡": 5673,
      "ĠÄĳá»įc": 5674,
      "ĠSá»©c": 5675,
      "asia": 5676,
      "åħĥ": 5677,
      "à¸Ķ": 5678,
      "igo": 5679,
      "ä»ĵ": 5680,
      "ĠÃģN": 5681,
      "OLI": 5682,
      "urity": 5683,
      "Ġngá»§": 5684,
      "ĠKHANG": 5685,
      "code": 5686,
      "è¿½æ±Ĥ": 5687,
      "ments": 5688,
      "íķł": 5689,
      "çīĩ": 5690,
      "Ġ1982": 5691,
      "è®¯": 5692,
      "nology": 5693,
      "ĠAlpha": 5694,
      "Ġ1977": 5695,
      "UYá»ĤN": 5696,
      "ĠEngineering": 5697,
      "çĻ¼": 5698,
      "ĠAcc": 5699,
      "æĭ©": 5700,
      "åĲĪä½ľ": 5701,
      "ĠTECHNOLOGIES": 5702,
      "eading": 5703,
      "ê³µ": 5704,
      "Ġë°ı": 5705,
      "sá»Ńa": 5706,
      "Ġê²½": 5707,
      "æĿĲæĸĻ": 5708,
      "ĠEnterprise": 5709,
      "ĠBIO": 5710,
      "è·¯": 5711,
      "ĠTRADING": 5712,
      "é£Ł": 5713,
      "ç±»": 5714,
      "ĠPTSC": 5715,
      "æĳ©": 5716,
      "Ġåħ³äºİæĪĳä»¬": 5717,
      "Ġdeliver": 5718,
      ",\"": 5719,
      "49": 5720,
      "=\"": 5721,
      "CK": 5722,
      "IX": 5723,
      "ath": 5724,
      "eah": 5725,
      "fol": 5726,
      "gen": 5727,
      "ler": 5728,
      "lines": 5729,
      "yle": 5730,
      "Ãī": 5731,
      "çģ": 5732,
      "èĨ": 5733,
      "èŃ": 5734,
      "ë°": 5735,
      "Ġour": 5736,
      "Ġáº¥m": 5737,
      "īæĭ©": 5738,
      "Ľt": 5739,
      "ĠtÃ¡n": 5740,
      "Ġcan": 5741,
      "ĠÄĳÃłn": 5742,
      "ĠCM": 5743,
      "ĠCent": 5744,
      "ĠCDC": 5745,
      "ĠTÃ´": 5746,
      "ĠTum": 5747,
      "Ġhy": 5748,
      "ĠthÃ´n": 5749,
      "ĠchÃºc": 5750,
      "Ġmica": 5751,
      "ĠbÃ´i": 5752,
      "ĠkhÃ¡ng": 5753,
      "ĠSav": 5754,
      "ĠSMT": 5755,
      "ĠMir": 5756,
      "ĠPN": 5757,
      "ĠPT": 5758,
      "ĠPan": 5759,
      "ĠPer": 5760,
      "ĠÄĲáº¡m": 5761,
      "ĠBCG": 5762,
      "ĠDan": 5763,
      "Ġcá»¡": 5764,
      "ĠLico": 5765,
      "ĠAD": 5766,
      "ĠThao": 5767,
      "Ġlá»ħ": 5768,
      "Ġchá»ĳt": 5769,
      "ange": 5770,
      "ĠXN": 5771,
      "ĠTrÃ¬nh": 5772,
      "ĠrÃ¨m": 5773,
      "ĠnhÆ°ng": 5774,
      "ora": 5775,
      "ĠCá»¨": 5776,
      "ãģĪ": 5777,
      "ãģĮ": 5778,
      "ãģį": 5779,
      "Ġloa": 5780,
      "ÃģN": 5781,
      "ãĥ¥": 5782,
      "Ġ31": 5783,
      "CON": 5784,
      "COGI": 5785,
      "ãĤ¸": 5786,
      "ouse": 5787,
      "itamin": 5788,
      "ellow": 5789,
      "ĠWel": 5790,
      "ĠWork": 5791,
      "Ġ53": 5792,
      "reat": 5793,
      "äº¤": 5794,
      "äºĴ": 5795,
      "ANY": 5796,
      "ĠInf": 5797,
      "ĠIns": 5798,
      "ĠÄĲá»ĶI": 5799,
      "Ġcá»¥m": 5800,
      "ability": 5801,
      "Ġ75": 5802,
      "ĠNHá»": 5803,
      "Ġ99": 5804,
      "ĠThuá»·": 5805,
      "ä¼ĺ": 5806,
      "åį¡": 5807,
      "åĲį": 5808,
      "ĠTHá»¦": 5809,
      "ifi": 5810,
      "åº¦": 5811,
      "ADEM": 5812,
      "ĠHÃĢNH": 5813,
      "å¿ħ": 5814,
      "Ġstudio": 5815,
      "ithium": 5816,
      "ä¸ĵæ³¨": 5817,
      "ãĥ³ãĤ°": 5818,
      "åķı": 5819,
      "Ġhuyáº¿t": 5820,
      "æĻĤ": 5821,
      "ç¨³": 5822,
      "Ġâľ": 5823,
      "çİ¯": 5824,
      "TML": 5825,
      "ĠAirlines": 5826,
      "Ġshowroom": 5827,
      "ĠVinhomes": 5828,
      "èĪĩ": 5829,
      "åł´": 5830,
      "è¾ĵ": 5831,
      "thuá»ĳc": 5832,
      "ĠPrec": 5833,
      "åħįè´¹éĤ®ç®±": 5834,
      "ĠHanoi": 5835,
      "ä½¿çĶ¨": 5836,
      "ĠELECT": 5837,
      "22": 5838,
      "42": 5839,
      "CTION": 5840,
      "DWT": 5841,
      "LG": 5842,
      "LT": 5843,
      "LINK": 5844,
      "RIC": 5845,
      "SF": 5846,
      "bÃª": 5847,
      "dáº§u": 5848,
      "den": 5849,
      "hr": 5850,
      "ios": 5851,
      "kV": 5852,
      "kiá»ĥm": 5853,
      "leb": 5854,
      "now": 5855,
      "ron": 5856,
      "ve": 5857,
      "æĴ": 5858,
      "çĹ": 5859,
      "Ġ{": 5860,
      "Ġanh": 5861,
      "ļĮ": 5862,
      "ŀį": 5863,
      "ĠtÃ¢y": 5864,
      "Ġtiá»ĥu": 5865,
      "Ġcá»ĳng": 5866,
      "Ġcombo": 5867,
      "Ġviáº¿t": 5868,
      "nhá»": 5869,
      "ĠCN": 5870,
      "ĠCAR": 5871,
      "Ġtrao": 5872,
      "ĠTax": 5873,
      "Ġpoly": 5874,
      "áº¿u": 5875,
      "ĠNO": 5876,
      "ĠNav": 5877,
      "Ġbar": 5878,
      "Ġglobal": 5879,
      "Ġdá»ĭ": 5880,
      "áºŃc": 5881,
      "ĠHR": 5882,
      "ĠVision": 5883,
      "ĠSel": 5884,
      "ĠSÃ³ng": 5885,
      "ĠMI": 5886,
      "ĠMount": 5887,
      "ĠPal": 5888,
      "ĠquÃ©t": 5889,
      "ĠÄĲáº¿n": 5890,
      "ĠDR": 5891,
      "ĠLÃ¢n": 5892,
      "ĠLÆ°u": 5893,
      "ĠGÃĴ": 5894,
      "ĠAk": 5895,
      "erc": 5896,
      "Ġráº¥t": 5897,
      "tis": 5898,
      "ĠNgÃ³i": 5899,
      "áº·p": 5900,
      "arning": 5901,
      "ĠVá»Ģ": 5902,
      "ĠEZ": 5903,
      "ãģĳ": 5904,
      "ĠFire": 5905,
      "ĠUSD": 5906,
      "ä¸ī": 5907,
      "ä¸ĸ": 5908,
      "olate": 5909,
      "ĠWh": 5910,
      "Ġ450": 5911,
      "gistic": 5912,
      "à¸ĩ": 5913,
      "æľĪ": 5914,
      "åĬ©": 5915,
      "å¤į": 5916,
      "ĠJO": 5917,
      "Ġsuá»ĳt": 5918,
      "Ġbá»Ŀ": 5919,
      "Ġcuá»ĳn": 5920,
      "Ġ1990": 5921,
      "éĢ²": 5922,
      "éĢīæĭ©": 5923,
      "Ġë§": 5924,
      "à¹ĩ": 5925,
      "fff": 5926,
      "íķ©": 5927,
      "ĠPhá»§": 5928,
      "ĠPlas": 5929,
      "ĠCoc": 5930,
      "å±±": 5931,
      "https": 5932,
      "ADE": 5933,
      "ĠNá»£": 5934,
      "ìłģ": 5935,
      "undai": 5936,
      "UTO": 5937,
      "ĠLux": 5938,
      "ickleb": 5939,
      "æłªå¼ıä¼ļç¤¾": 5940,
      "ĠiOS": 5941,
      "ĠMarine": 5942,
      "spital": 5943,
      "ĠMeta": 5944,
      "ç¾¤": 5945,
      "ĠHyundai": 5946,
      "ĠUpcom": 5947,
      "æĹ¥æľ¬": 5948,
      "è£½éĢł": 5949,
      "ĠTuá»ĩ": 5950,
      "ĠCORPOR": 5951,
      "éļĽ": 5952,
      "Ä¨NH": 5953,
      "dá»¥ng": 5954,
      "æ£Ģ": 5955,
      "ĠTáº¦NG": 5956,
      "ĠNPK": 5957,
      "ĠWordPress": 5958,
      "ãģªãģ©": 5959,
      "ç¨³å®ļ": 5960,
      "ickleball": 5961,
      "63": 5962,
      "65": 5963,
      "77": 5964,
      "745": 5965,
      "BO": 5966,
      "GM": 5967,
      "Mac": 5968,
      "UM": 5969,
      "WE": 5970,
      "bia": 5971,
      "bff": 5972,
      "li": 5973,
      "mm": 5974,
      "ote": 5975,
      "uit": 5976,
      "utr": 5977,
      "ven": 5978,
      "£t": 5979,
      "¸ı": 5980,
      "¹Ħ": 5981,
      "åĥ": 5982,
      "æį": 5983,
      "æŁ": 5984,
      "íĹ": 5985,
      "ï¸ı": 5986,
      "Ġet": 5987,
      "Ġap": 5988,
      "Ġäº§åĵģ": 5989,
      "Ġteam": 5990,
      "Ġcanh": 5991,
      "Ã¡u": 5992,
      "ĠTinh": 5993,
      "Ġdevelopment": 5994,
      "ĠphiÃªn": 5995,
      "ĠkÃŃch": 5996,
      "Ġste": 5997,
      "Ġcháº·ng": 5998,
      "ĠmÃª": 5999,
      "Ġmai": 6000,
      "ĠmÅ©": 6001,
      "ĠNU": 6002,
      "ĠNext": 6003,
      "ĠNÆ¯á»ļC": 6004,
      "ĠbáºŃc": 6005,
      "chu": 6006,
      "ĠHÃ²n": 6007,
      "Ġná»ķ": 6008,
      "ĠVNG": 6009,
      "ĠSC": 6010,
      "Ġhá»§y": 6011,
      "ĠMot": 6012,
      "Ġtá»ĭch": 6013,
      "ĠPay": 6014,
      "ĠPART": 6015,
      "ĠPCCC": 6016,
      "Ġquáº¿": 6017,
      "ĠÄĲáº·c": 6018,
      "ĠBang": 6019,
      "ĠDY": 6020,
      "ĠLA": 6021,
      "ĠLao": 6022,
      "ĠGÃ²": 6023,
      "007": 6024,
      "Ġlá»£p": 6025,
      "Ġmá»³": 6026,
      "onex": 6027,
      "ĠXI": 6028,
      "arel": 6029,
      "á»ĨNH": 6030,
      "ories": 6031,
      "ĠCá»ľ": 6032,
      "ĠFarm": 6033,
      "ĠRá»": 6034,
      "thÃ´ng": 6035,
      "ĠThá»©c": 6036,
      "ãĤ§": 6037,
      "ĠOR": 6038,
      "ĠWood": 6039,
      "ĠYour": 6040,
      "Ġ51": 6041,
      "áºłCH": 6042,
      "phaco": 6043,
      "ley": 6044,
      "Ġtrá»įt": 6045,
      "ental": 6046,
      "à¸¥": 6047,
      "à¸Ĺ": 6048,
      "auty": 6049,
      "TIVE": 6050,
      "apmail": 6051,
      "ild": 6052,
      "ĠJap": 6053,
      "agon": 6054,
      "opy": 6055,
      "ĠNHáº¬T": 6056,
      "Ġbá»įc": 6057,
      "ĠCambod": 6058,
      "å¹¶": 6059,
      "ìĿĢ": 6060,
      "ä½į": 6061,
      "ç»Ħ": 6062,
      "Ġêµ": 6063,
      "ika": 6064,
      "ĠLICOGI": 6065,
      "ĠPlatform": 6066,
      "ĠTrá»įng": 6067,
      "çĽĸ": 6068,
      "å°ı": 6069,
      "æĹ¶": 6070,
      "æ±Ł": 6071,
      "ited": 6072,
      "ĠINNO": 6073,
      "ä¸ĵå±ŀ": 6074,
      "ĠResid": 6075,
      "ĠABS": 6076,
      "ĠExper": 6077,
      "ĠManufacturing": 6078,
      "ĠìĹĨ": 6079,
      "Ġcomposite": 6080,
      "ĠBrand": 6081,
      "iii": 6082,
      "è³ª": 6083,
      "PVC": 6084,
      "ç§ĳæĬĢæľīéĻĲåħ¬åı¸": 6085,
      "ĠNGá»®": 6086,
      "æ³¨åĨĮ": 6087,
      "ç¶ĵ": 6088,
      "ermal": 6089,
      "ìľ¼": 6090,
      "ãģĭãĤī": 6091,
      "ĠKHÃģNH": 6092,
      "å¼ºå¤§": 6093,
      "ĠApplication": 6094,
      "æ§ĺ": 6095,
      "èĩ´åĬĽ": 6096,
      "ĠLicogi": 6097,
      "ĠCá»¨U": 6098,
      "çĹħ": 6099,
      "nhá»±a": 6100,
      "ä¸ĸçķĮ": 6101,
      "ĠPARTN": 6102,
      "32": 6103,
      "BG": 6104,
      "FOR": 6105,
      "Há»": 6106,
      "MES": 6107,
      "PRO": 6108,
      "SN": 6109,
      "Vá»ĳn": 6110,
      "WORK": 6111,
      "ct": 6112,
      "do": 6113,
      "dis": 6114,
      "dge": 6115,
      "gue": 6116,
      "jec": 6117,
      "ky": 6118,
      "ká»¹": 6119,
      "lay": 6120,
      "lÃłm": 6121,
      "ny": 6122,
      "ness": 6123,
      "nect": 6124,
      "ran": 6125,
      "tá»ĳi": 6126,
      "åĤ¨": 6127,
      "ç¸": 6128,
      "éħį": 6129,
      "Ġáº©n": 6130,
      "Ġag": 6131,
      "ĠæľįåĬ¡": 6132,
      "ĥŃ": 6133,
      "ĠtÃ¡ch": 6134,
      "ĠcÃ¡nh": 6135,
      "Ġcáº¯m": 6136,
      "ĠCAP": 6137,
      "ĠCUNG": 6138,
      "Ġlab": 6139,
      "Ġlithium": 6140,
      "ĠTÃªn": 6141,
      "ĠTÃŃnh": 6142,
      "ĠTÃĤN": 6143,
      "Ġdiá»ĩt": 6144,
      "Ġdesign": 6145,
      "Ġsung": 6146,
      "ĠthÃ¡p": 6147,
      "Ġnguy": 6148,
      "ĠbÃ¡c": 6149,
      "ĠHar": 6150,
      "ĠHeng": 6151,
      "Ġnáº¯p": 6152,
      "Ġnáº¥m": 6153,
      "Ġxáº»": 6154,
      "ĠSap": 6155,
      "ĠStr": 6156,
      "ĠSMS": 6157,
      "ĠServer": 6158,
      "ĠSARA": 6159,
      "ĠMi": 6160,
      "ĠMobile": 6161,
      "ĠÄĲÃĶ": 6162,
      "ĠÄĲiá»ģu": 6163,
      "ĠBÃ©": 6164,
      "ĠBack": 6165,
      "ĠhÃłm": 6166,
      "ĠphÃ¡i": 6167,
      "ĠLáº¡i": 6168,
      "ĠLuyá»ĩn": 6169,
      "ĠAu": 6170,
      "ĠKing": 6171,
      "ĠKey": 6172,
      "erat": 6173,
      "Ġthun": 6174,
      "ĠXÃģC": 6175,
      "ĠTrip": 6176,
      "tit": 6177,
      "ĠQR": 6178,
      "ĠDá»¥ng": 6179,
      "Ã¹n": 6180,
      "ĠNgoáº¡i": 6181,
      "ena": 6182,
      "ale": 6183,
      "ĠEVN": 6184,
      "ĠRI": 6185,
      "ĠHospital": 6186,
      "ãĤ¿": 6187,
      "Ġ1900": 6188,
      "tical": 6189,
      "phÃ²ng": 6190,
      "ustain": 6191,
      "side": 6192,
      "ĠInternet": 6193,
      "ä»İ": 6194,
      "Ġ63": 6195,
      "ĠLá»ĺC": 6196,
      "VIS": 6197,
      "ĠCPC": 6198,
      "Ġ86": 6199,
      "verse": 6200,
      "thá»©c": 6201,
      "ĠëĤ": 6202,
      "ATER": 6203,
      "ĠKHá»": 6204,
      "come": 6205,
      "åįı": 6206,
      "128": 6207,
      "ĠPlay": 6208,
      "ply": 6209,
      "ä¸Ģå¯¹": 6210,
      "æĿ¿": 6211,
      "å°ģ": 6212,
      "å°İ": 6213,
      "IDV": 6214,
      "ãĤ¹ãĥĨ": 6215,
      "éģĬ": 6216,
      "Ġspecial": 6217,
      "æ³ķ": 6218,
      "æł¸": 6219,
      "ç®¡å®¶": 6220,
      "ĠFoods": 6221,
      "èĤ²": 6222,
      "ĠCHá»¦": 6223,
      "å½ķ": 6224,
      "Pháº§n": 6225,
      "åĢ¼": 6226,
      "Ġshop": 6227,
      "ĠIndustries": 6228,
      "èµĦè®¯": 6229,
      "ĠBuilding": 6230,
      "Ġplatform": 6231,
      "å¥ĩ": 6232,
      "æĶ¶åıĳ": 6233,
      "Ġ1958": 6234,
      "CRM": 6235,
      "Ġê³µ": 6236,
      "ĠmÃ¹a": 6237,
      "ĠUyÃªn": 6238,
      "é«ĺæķĪçļĦ": 6239,
      "ĠNghá»ĭ": 6240,
      "\":\"": 6241,
      "Ð¾Ð": 6242,
      "Iá»ĤM": 6243,
      "æ±½è½¦": 6244,
      "ĠHomes": 6245,
      "ĠSÃģNG": 6246,
      "å¡ĳ": 6247,
      "ĠPacific": 6248,
      "ĠPRODUCT": 6249,
      "ĠCORPORATION": 6250,
      "ä¸Ģå¯¹ä¸Ģ": 6251,
      "47": 6252,
      "App": 6253,
      "CAR": 6254,
      "Dá»ĭch": 6255,
      "LINE": 6256,
      "NET": 6257,
      "OáºłI": 6258,
      "OUR": 6259,
      "SL": 6260,
      "YA": 6261,
      "__": 6262,
      "ba": 6263,
      "gá»Ĺ": 6264,
      "jet": 6265,
      "no": 6266,
      "son": 6267,
      "£¨ì": 6268,
      "å§": 6269,
      "å²": 6270,
      "åĤ": 6271,
      "ê¸": 6272,
      "Ġáº¢": 6273,
      "Ġop": 6274,
      "Ġ...": 6275,
      "ĠãģĬ": 6276,
      "Ĥn": 6277,
      "Ĳľ": 6278,
      "Ġtim": 6279,
      "ĠvÅ©": 6280,
      "ĠÄĤn": 6281,
      "ĠÄĳen": 6282,
      "ĠCC": 6283,
      "ĠCG": 6284,
      "ĠCáºŃp": 6285,
      "Ġdata": 6286,
      "Ġpr": 6287,
      "Ġháº¡i": 6288,
      "Ġháº£o": 6289,
      "ĠphÃł": 6290,
      "ĠphÃº": 6291,
      "áº¥c": 6292,
      "ĠNEX": 6293,
      "ĠHuyá»ĩn": 6294,
      "ĠxÃ©t": 6295,
      "ĠVis": 6296,
      "ĠMu": 6297,
      "ĠMáºŃt": 6298,
      "ĠMIN": 6299,
      "ĠMach": 6300,
      "Ġtá»±a": 6301,
      "ĠBam": 6302,
      "ĠBUS": 6303,
      "ĠDong": 6304,
      "ĠLÃ£": 6305,
      "ĠLÃ¡i": 6306,
      "ĠLá»ĩ": 6307,
      "ĠLim": 6308,
      "ĠLÃĤM": 6309,
      "ĠGM": 6310,
      "ĠGá»": 6311,
      "ĠGang": 6312,
      "ĠGEL": 6313,
      "ĠGate": 6314,
      "ĠThiá»ĩu": 6315,
      "ĠThermal": 6316,
      "Ġ220": 6317,
      "Ã½t": 6318,
      "ĠPhÃ³ng": 6319,
      "ern": 6320,
      "Ãºn": 6321,
      "Ġráº±ng": 6322,
      "ĠNhÃ´m": 6323,
      "ĠQuick": 6324,
      "ala": 6325,
      "ission": 6326,
      "AMI": 6327,
      "ĠFact": 6328,
      "ĠTHPT": 6329,
      "ãĥį": 6330,
      "ĠUr": 6331,
      "ĠRáº¡ch": 6332,
      "ĠReal": 6333,
      "ĠRep": 6334,
      "CHO": 6335,
      "acity": 6336,
      "ome": 6337,
      "itan": 6338,
      "ĠWell": 6339,
      "Ġ47": 6340,
      "Äĳáº¡i": 6341,
      "Ġìļ": 6342,
      "trib": 6343,
      "ilm": 6344,
      "ĠHá»Ĵ": 6345,
      "ĠInst": 6346,
      "ĠÃģng": 6347,
      "å¤Ħ": 6348,
      "ĠCHUYá»ĤN": 6349,
      "oto": 6350,
      "Ġfile": 6351,
      "æĪª": 6352,
      "ĠVNPT": 6353,
      "éĤ®ç®±åĵģçīĮ": 6354,
      "Ġæł": 6355,
      "ulf": 6356,
      "åľ³": 6357,
      "æĬ¥": 6358,
      "ĠbuÃ½t": 6359,
      "ĠLILAM": 6360,
      "play": 6361,
      "IGHT": 6362,
      "ĠCool": 6363,
      "æĶ¿": 6364,
      "Ġ130": 6365,
      "ILL": 6366,
      "ãĥ¼ãĥł": 6367,
      "ĠSpace": 6368,
      "OODS": 6369,
      "azon": 6370,
      "ĠClick": 6371,
      "è¶ħé«ĺ": 6372,
      "ĠAPPAR": 6373,
      "è¿ĲèĲ¥": 6374,
      "çĶŁæ´»": 6375,
      "ĠToy": 6376,
      "çİ°": 6377,
      "ç²¾èĭ±": 6378,
      "ĠENERGY": 6379,
      "ĠVinaconex": 6380,
      "onda": 6381,
      "è£ħ": 6382,
      "ĠTRá»ľI": 6383,
      "ä»¥åıĬ": 6384,
      "cons": 6385,
      "Ħë©Ķ": 6386,
      "ìĿ´íĬ¸": 6387,
      "å¹¿åĳĬ": 6388,
      "Ġaut": 6389,
      "æĶ¶è´¹éĤ®ç®±": 6390,
      "éĺ²": 6391,
      "ities": 6392,
      "ĠItalia": 6393,
      "ĠSERVICE": 6394,
      "êµ¬": 6395,
      "èĢħ": 6396,
      "éĩıçļĦ": 6397,
      "íĻĶ": 6398,
      "KhÃ¡ch": 6399
    },
    "merges": [
      [
        "á",
        "»"
      ],
      [
        "á",
        "º"
      ],
      [
        "n",
        "g"
      ],
      [
        "Ġ",
        "t"
      ],
      [
        "Ġ",
        "c"
      ],
      [
        "Ã",
        "ł"
      ],
      [
        "Ġ",
        "v"
      ],
      [
        "n",
        "h"
      ],
      [
        "Ġ",
        "Ä"
      ],
      [
        "Ã",
        "¡"
      ],
      [
        "ĠÄ",
        "ĳ"
      ],
      [
        "Ã",
        "´"
      ],
      [
        "Ã´",
        "ng"
      ],
      [
        "i",
        "á»"
      ],
      [
        "Ġ",
        "C"
      ],
      [
        "h",
        "á»"
      ],
      [
        "Ġt",
        "r"
      ],
      [
        "Ġ",
        "l"
      ],
      [
        "Æ",
        "°"
      ],
      [
        "Ġ",
        "T"
      ],
      [
        "Ġ",
        "d"
      ],
      [
        "Ġ",
        "p"
      ],
      [
        "áº",
        "£"
      ],
      [
        "áº",
        "¡"
      ],
      [
        "iá»",
        "ĩ"
      ],
      [
        "Ġv",
        "Ãł"
      ],
      [
        "Ġ",
        "h"
      ],
      [
        "Ġp",
        "h"
      ],
      [
        "áº",
        "¥"
      ],
      [
        "Ġ",
        "k"
      ],
      [
        "Ġ",
        "s"
      ],
      [
        "Ġt",
        "h"
      ],
      [
        "Ġv",
        "á»"
      ],
      [
        "Ġc",
        "h"
      ],
      [
        "Ġt",
        "y"
      ],
      [
        "á»",
        "Ļ"
      ],
      [
        "Ã¡",
        "c"
      ],
      [
        "áº",
        "¿"
      ],
      [
        "Ġ",
        "m"
      ],
      [
        "Ġ",
        "ng"
      ],
      [
        "Ġ",
        "N"
      ],
      [
        "Æ°",
        "á»"
      ],
      [
        "áº",
        "§"
      ],
      [
        "ĠC",
        "Ã´ng"
      ],
      [
        "Ã",
        "ª"
      ],
      [
        "Ġ",
        "b"
      ],
      [
        "Ġ",
        "g"
      ],
      [
        "Ġd",
        "á»"
      ],
      [
        "áº£",
        "n"
      ],
      [
        "Ã",
        "¢"
      ],
      [
        "Ġ",
        "nh"
      ],
      [
        "Ġk",
        "h"
      ],
      [
        "áº",
        "Ń"
      ],
      [
        "c",
        "h"
      ],
      [
        "Ġc",
        "Ã¡c"
      ],
      [
        "Ġc",
        "Ã´ng"
      ],
      [
        "áº¥",
        "t"
      ],
      [
        "Ġ",
        "H"
      ],
      [
        "Ġ",
        "n"
      ],
      [
        "Ã",
        "Ń"
      ],
      [
        "Ãª",
        "n"
      ],
      [
        "Ġ",
        "x"
      ],
      [
        "ĠÄĳ",
        "á»Ļ"
      ],
      [
        "u",
        "ng"
      ],
      [
        "áº¡",
        "i"
      ],
      [
        "Ġ",
        "V"
      ],
      [
        "±",
        "c"
      ],
      [
        "Ġg",
        "i"
      ],
      [
        "u",
        "y"
      ],
      [
        "ĠÄĳá»Ļ",
        "ng"
      ],
      [
        "Ġt",
        "há»"
      ],
      [
        "o",
        "ng"
      ],
      [
        "á»",
        "ķ"
      ],
      [
        "Ġs",
        "áº£n"
      ],
      [
        "Æ",
        "¡"
      ],
      [
        "ĭ",
        "ch"
      ],
      [
        "i",
        "nh"
      ],
      [
        "áº",
        "©"
      ],
      [
        "Ġtr",
        "ong"
      ],
      [
        "áº¡",
        "t"
      ],
      [
        "áº§",
        "n"
      ],
      [
        "Ġ",
        "S"
      ],
      [
        "Ä",
        "ĥ"
      ],
      [
        "Ġ",
        "há»"
      ],
      [
        "Ġng",
        "h"
      ],
      [
        "Ġh",
        "o"
      ],
      [
        "iá»ĩ",
        "n"
      ],
      [
        "áº¥",
        "p"
      ],
      [
        "Ã",
        "³"
      ],
      [
        "Ġ",
        "q"
      ],
      [
        "Ġngh",
        "iá»ĩ"
      ],
      [
        "Ġ",
        "M"
      ],
      [
        "Ġt",
        "á»"
      ],
      [
        "a",
        "o"
      ],
      [
        "Ġc",
        "áº¥p"
      ],
      [
        "Ġ",
        "P"
      ],
      [
        "Ġvá»",
        "¥"
      ],
      [
        "Ġvá»",
        "±c"
      ],
      [
        "Ġ",
        "\""
      ],
      [
        "a",
        "nh"
      ],
      [
        "\"",
        ","
      ],
      [
        "Ġho",
        "áº¡t"
      ],
      [
        "u",
        "áº¥t"
      ],
      [
        "N",
        "G"
      ],
      [
        "Æ°á»",
        "£"
      ],
      [
        "Ġph",
        "áº§n"
      ],
      [
        "N",
        "H"
      ],
      [
        "Ä",
        "©"
      ],
      [
        "i",
        "áº¿"
      ],
      [
        "a",
        "m"
      ],
      [
        "Ľ",
        "i"
      ],
      [
        "Ä©",
        "nh"
      ],
      [
        "áº§",
        "u"
      ],
      [
        "Ġq",
        "u"
      ],
      [
        "ĠÄ",
        "Ĳ"
      ],
      [
        "Ġnghiá»ĩ",
        "p"
      ],
      [
        "áº£",
        "i"
      ],
      [
        "á»",
        "ĳ"
      ],
      [
        "á»",
        "ĵ"
      ],
      [
        "Ġ",
        "B"
      ],
      [
        "Ġl",
        "Ä©nh"
      ],
      [
        "Ġh",
        "Ãł"
      ],
      [
        "ĠT",
        "NH"
      ],
      [
        "ĠTNH",
        "H"
      ],
      [
        "Ġph",
        "Ã¡"
      ],
      [
        "áº©",
        "m"
      ],
      [
        "Ã¢",
        "n"
      ],
      [
        "Ġdá»",
        "ĭch"
      ],
      [
        "o",
        "anh"
      ],
      [
        "Ġph",
        "áº©m"
      ],
      [
        "Ġ",
        "D"
      ],
      [
        "áºŃ",
        "p"
      ],
      [
        "ĥ",
        "n"
      ],
      [
        "Ġd",
        "oanh"
      ],
      [
        "Ġt",
        "áº¡i"
      ],
      [
        "Ġx",
        "uáº¥t"
      ],
      [
        "Ã",
        "¬"
      ],
      [
        "Ġc",
        "á»"
      ],
      [
        "Ã",
        "Ķ"
      ],
      [
        "Ġc",
        "ung"
      ],
      [
        "Ġl",
        "Ãł"
      ],
      [
        "ÃŃ",
        "nh"
      ],
      [
        "Ġ",
        "L"
      ],
      [
        "ÃĶ",
        "NG"
      ],
      [
        "Ġtr",
        "á»"
      ],
      [
        "i",
        "n"
      ],
      [
        "Ã¢",
        "y"
      ],
      [
        "Ġ",
        "G"
      ],
      [
        "ĠhÃł",
        "ng"
      ],
      [
        "Æ°",
        "Æ¡"
      ],
      [
        "ĠC",
        "á»ķ"
      ],
      [
        "Ãł",
        "nh"
      ],
      [
        "Ġch",
        "uy"
      ],
      [
        "Ġdá»",
        "±"
      ],
      [
        "Æ°Æ¡",
        "ng"
      ],
      [
        "Æ°á»",
        "Ŀ"
      ],
      [
        "a",
        "n"
      ],
      [
        "Ġ",
        "("
      ],
      [
        "Ã¬",
        "nh"
      ],
      [
        "iá»ĩ",
        "t"
      ],
      [
        "Ġch",
        "ÃŃnh"
      ],
      [
        "ĠT",
        "Y"
      ],
      [
        "0",
        "0"
      ],
      [
        "Ġp",
        "há»"
      ],
      [
        "ĠN",
        "am"
      ],
      [
        "ģ",
        "n"
      ],
      [
        "C",
        "ÃĶNG"
      ],
      [
        "Æ°á»£",
        "c"
      ],
      [
        "Ġ",
        "A"
      ],
      [
        "iá»ĩ",
        "u"
      ],
      [
        "Ġng",
        "há»"
      ],
      [
        "Ã¡",
        "n"
      ],
      [
        "Ġn",
        "Äĥ"
      ],
      [
        "Ġvá»",
        "Ľi"
      ],
      [
        "©",
        "ng"
      ],
      [
        "Ġ",
        "Â"
      ],
      [
        "Ġcá»",
        "§"
      ],
      [
        "ĠÂ",
        "·"
      ],
      [
        "iá»",
        "ĥn"
      ],
      [
        "ĠT",
        "h"
      ],
      [
        "Ġcá»§",
        "a"
      ],
      [
        "Ġt",
        "Æ°"
      ],
      [
        "Ġch",
        "o"
      ],
      [
        "Ġl",
        "á»"
      ],
      [
        "Ġs",
        "á»"
      ],
      [
        "Ġnghá»",
        "ĩ"
      ],
      [
        "Ġc",
        "há»"
      ],
      [
        "Ãł",
        "n"
      ],
      [
        "ĠV",
        "iá»ĩt"
      ],
      [
        "Æ°á»Ŀ",
        "ng"
      ],
      [
        "a",
        "ng"
      ],
      [
        "Ġ",
        "K"
      ],
      [
        "ĠC",
        "h"
      ],
      [
        "ĠphÃ¡",
        "p"
      ],
      [
        "Ġth",
        "Ã´ng"
      ],
      [
        "iáº¿",
        "t"
      ],
      [
        "ĠÄĳ",
        "iá»ĩn"
      ],
      [
        "i",
        "Ãªn"
      ],
      [
        "áºŃ",
        "n"
      ],
      [
        "á»Ļ",
        "i"
      ],
      [
        "á»",
        "ĭ"
      ],
      [
        "áº¿",
        "n"
      ],
      [
        "Ġk",
        "inh"
      ],
      [
        "Ġtr",
        "iá»ĥn"
      ],
      [
        "Ġchuy",
        "Ãªn"
      ],
      [
        "Ġ",
        "2"
      ],
      [
        "Æ°á»",
        "Ľ"
      ],
      [
        "Ġgi",
        "áº£i"
      ],
      [
        "Ġdá»±",
        "ng"
      ],
      [
        "Ġdá»",
        "¥"
      ],
      [
        "Ã",
        "²"
      ],
      [
        "áºŃ",
        "t"
      ],
      [
        "a",
        "i"
      ],
      [
        "Ġ",
        "1"
      ],
      [
        "Ġtá»",
        "«"
      ],
      [
        "©",
        "c"
      ],
      [
        "Ã",
        "½"
      ],
      [
        "Ġm",
        "á»"
      ],
      [
        "ĠÄĳ",
        "Æ°á»£c"
      ],
      [
        "Ã¡c",
        "h"
      ],
      [
        "ĠP",
        "h"
      ],
      [
        "ĠvÃł",
        "o"
      ],
      [
        "ĠH",
        "Ãł"
      ],
      [
        "áº",
        "¯"
      ],
      [
        "e",
        "r"
      ],
      [
        "á»ĳ",
        "c"
      ],
      [
        "o",
        "n"
      ],
      [
        "Ġth",
        "u"
      ],
      [
        "Ġ",
        "["
      ],
      [
        "Ã¡",
        "y"
      ],
      [
        "Æ°á»£",
        "ng"
      ],
      [
        "Ġl",
        "Ã½"
      ],
      [
        "Ã",
        "º"
      ],
      [
        "Ġthá»",
        "ĭ"
      ],
      [
        "Ġt",
        "áºŃp"
      ],
      [
        "Ġtr",
        "Ãªn"
      ],
      [
        "ĠnÄĥ",
        "m"
      ],
      [
        "Ãł",
        "i"
      ],
      [
        "Æ°á»Ľ",
        "c"
      ],
      [
        "Ã",
        "£"
      ],
      [
        "á»",
        "ģn"
      ],
      [
        "ĠphÃ¡",
        "t"
      ],
      [
        "Ġ",
        "X"
      ],
      [
        "Ġth",
        "Ãłnh"
      ],
      [
        "Ġ",
        "á»"
      ],
      [
        "Ġc",
        "Ã³"
      ],
      [
        "Æ¡",
        "n"
      ],
      [
        "ĠT",
        "r"
      ],
      [
        "Ġ",
        "r"
      ],
      [
        "Ġx",
        "Ã¢y"
      ],
      [
        "\"",
        "]"
      ],
      [
        "Ġth",
        "iáº¿t"
      ],
      [
        "Ġl",
        "Æ°á»£ng"
      ],
      [
        "áº£",
        "ng"
      ],
      [
        "Ġkh",
        "o"
      ],
      [
        "Ġc",
        "ao"
      ],
      [
        "Ġ[",
        "\""
      ],
      [
        "Ġk",
        "áº¿"
      ],
      [
        "Ġtr",
        "ung"
      ],
      [
        "Ġm",
        "Ã¡y"
      ],
      [
        "áº¡",
        "o"
      ],
      [
        "áº¥",
        "n"
      ],
      [
        "Ġnh",
        "Ãł"
      ],
      [
        "o",
        "Ãłn"
      ],
      [
        "ĠN",
        "á»Ļi"
      ],
      [
        "Ġtr",
        "Æ°á»Ŀng"
      ],
      [
        "Ġdá»¥",
        "ng"
      ],
      [
        "ĠÄĳ",
        "áº¿n"
      ],
      [
        "ĠÄĳ",
        "áº§u"
      ],
      [
        "Ġphá»",
        "ĳ"
      ],
      [
        "Ġnh",
        "Æ°"
      ],
      [
        "t",
        "i"
      ],
      [
        "Ġtr",
        "Ã¬nh"
      ],
      [
        "i",
        "Ãª"
      ],
      [
        "Ġ",
        "Q"
      ],
      [
        "Ġkh",
        "Ã¡ch"
      ],
      [
        "ĠM",
        "inh"
      ],
      [
        "áº£",
        "o"
      ],
      [
        "ĠD",
        "á»"
      ],
      [
        "Ġn",
        "Æ°á»Ľc"
      ],
      [
        "ĠH",
        "á»ĵ"
      ],
      [
        "Ã",
        "¹"
      ],
      [
        "Ã³",
        "a"
      ],
      [
        "ĠN",
        "g"
      ],
      [
        "Ġt",
        "áº¡o"
      ],
      [
        "Ġ",
        "-"
      ],
      [
        "Ġ",
        "y"
      ],
      [
        "ĠCh",
        "ÃŃ"
      ],
      [
        "áº",
        "·"
      ],
      [
        "ĳ",
        "ng"
      ],
      [
        "Ġm",
        "áº¡i"
      ],
      [
        "Ġch",
        "áº¥t"
      ],
      [
        "Ġth",
        "Æ°Æ¡ng"
      ],
      [
        "Ġgi",
        "a"
      ],
      [
        "a",
        "r"
      ],
      [
        "į",
        "c"
      ],
      [
        "á»",
        "Ĩ"
      ],
      [
        "ĠP",
        "H"
      ],
      [
        "¥",
        "c"
      ],
      [
        "iáº¿",
        "n"
      ],
      [
        "Ġhá»",
        "ĩ"
      ],
      [
        "Ã¡",
        "o"
      ],
      [
        "ĠG",
        "i"
      ],
      [
        "e",
        "n"
      ],
      [
        "Ġá»",
        "©ng"
      ],
      [
        "Ã¹",
        "ng"
      ],
      [
        "Ġb",
        "ao"
      ],
      [
        "Ġt",
        "áº¿"
      ],
      [
        "ĠN",
        "h"
      ],
      [
        "á»Ļ",
        "t"
      ],
      [
        "Äĥ",
        "ng"
      ],
      [
        "C",
        "Ã´ng"
      ],
      [
        "Ġc",
        "áº§u"
      ],
      [
        "Ġl",
        "iá»ĩu"
      ],
      [
        "á»ķ",
        "ng"
      ],
      [
        "Ġt",
        "in"
      ],
      [
        "ĠQ",
        "u"
      ],
      [
        "ĠT",
        "P"
      ],
      [
        "Ġh",
        "Ã³a"
      ],
      [
        "á»ĵ",
        "ng"
      ],
      [
        "áº©",
        "u"
      ],
      [
        "Ġthá»",
        "ĳng"
      ],
      [
        "e",
        "s"
      ],
      [
        "iá»ĩ",
        "c"
      ],
      [
        "a",
        "l"
      ],
      [
        "Ã¡",
        "t"
      ],
      [
        "Ġh",
        "iá»ĩu"
      ],
      [
        "ĠS",
        "áº£n"
      ],
      [
        "Ġb",
        "á»ĭ"
      ],
      [
        "a",
        "y"
      ],
      [
        "Ġv",
        "iá»ĩc"
      ],
      [
        "Ġkh",
        "áº©u"
      ],
      [
        "iá»",
        "ģn"
      ],
      [
        "Ġtrá»",
        "£"
      ],
      [
        "Ġ",
        "Ã¡n"
      ],
      [
        "Ġ",
        "I"
      ],
      [
        "Ġph",
        "Ã¢n"
      ],
      [
        "ĠV",
        "á»"
      ],
      [
        "Ġqu",
        "áº£n"
      ],
      [
        "Ġgi",
        "ao"
      ],
      [
        "Ġg",
        "á»ĵ"
      ],
      [
        "Ġ",
        "E"
      ],
      [
        "Ġsá»",
        "Ł"
      ],
      [
        "Ġv",
        "áºŃn"
      ],
      [
        "Ġgá»ĵ",
        "m"
      ],
      [
        "o",
        "r"
      ],
      [
        "Ġs",
        "á»ĳ"
      ],
      [
        "Ġhá»",
        "įc"
      ],
      [
        "ĠC",
        "ung"
      ],
      [
        "iá»",
        "ģ"
      ],
      [
        "áº",
        "¦"
      ],
      [
        "£",
        "p"
      ],
      [
        "Ġv",
        "áº¥n"
      ],
      [
        "Ġphá»ĳ",
        "i"
      ],
      [
        "Ġkh",
        "u"
      ],
      [
        "t",
        "e"
      ],
      [
        "Ã¡",
        "ng"
      ],
      [
        "Ġb",
        "áº£o"
      ],
      [
        "Ġhá»",
        "Ĺ"
      ],
      [
        "á»",
        "¹"
      ],
      [
        "0",
        "1"
      ],
      [
        "á»",
        "ĥn"
      ],
      [
        "ĠV",
        "I"
      ],
      [
        "iá»ģ",
        "u"
      ],
      [
        "ĠC",
        "á»"
      ],
      [
        "ĠnÄĥ",
        "ng"
      ],
      [
        "iÃª",
        "u"
      ],
      [
        "Ã¡",
        "p"
      ],
      [
        "Ġm",
        "á»Ļt"
      ],
      [
        "áº¡",
        "ng"
      ],
      [
        "Ġhá»",
        "£p"
      ],
      [
        "Ġl",
        "áºŃp"
      ],
      [
        "i",
        "s"
      ],
      [
        "Ã²",
        "ng"
      ],
      [
        "ã",
        "ģ"
      ],
      [
        "Ġng",
        "Ãłnh"
      ],
      [
        "Ġm",
        "Ã´"
      ],
      [
        "Ġqu",
        "á»ĳc"
      ],
      [
        "A",
        "M"
      ],
      [
        "Ġnh",
        "á»"
      ],
      [
        "Ġthá»",
        "©c"
      ],
      [
        "Ġc",
        "á»ķ"
      ],
      [
        "ĠhÃł",
        "nh"
      ],
      [
        "Ġl",
        "o"
      ],
      [
        "Ġt",
        "oÃłn"
      ],
      [
        "ĠK",
        "h"
      ],
      [
        "Ġh",
        "iá»ĩn"
      ],
      [
        "Äĥ",
        "m"
      ],
      [
        "iá»",
        "ĥ"
      ],
      [
        "Ġ",
        "F"
      ],
      [
        "Ã",
        "©"
      ],
      [
        "ĠT",
        "H"
      ],
      [
        "ĠÄĳ",
        "a"
      ],
      [
        "r",
        "o"
      ],
      [
        "ã",
        "Ģ"
      ],
      [
        "Ãł",
        "y"
      ],
      [
        "§",
        "y"
      ],
      [
        "Ġy",
        "áº¿"
      ],
      [
        "Ġt",
        "iÃªu"
      ],
      [
        "Ġthá»",
        "±c"
      ],
      [
        "e",
        "t"
      ],
      [
        "Ġchá»",
        "§"
      ],
      [
        "¯",
        "ng"
      ],
      [
        "Ãł",
        "o"
      ],
      [
        "Ġtá»",
        "Ń"
      ],
      [
        "Ġnh",
        "u"
      ],
      [
        "Ġphá»",
        "¥c"
      ],
      [
        "áº¦",
        "N"
      ],
      [
        "Ã",
        "ģ"
      ],
      [
        "ã",
        "ĥ"
      ],
      [
        "áº·",
        "t"
      ],
      [
        "ĠPH",
        "áº¦N"
      ],
      [
        "ÃŃ",
        "ch"
      ],
      [
        "Ã¡",
        "i"
      ],
      [
        "á»",
        "ĩ"
      ],
      [
        "ĠÄĳ",
        "á»ĭ"
      ],
      [
        "ĠDá»",
        "ĭch"
      ],
      [
        "Ġ",
        "U"
      ],
      [
        "ĠCá»",
        "Ķ"
      ],
      [
        "Ġ",
        "3"
      ],
      [
        "uy",
        "á»ģn"
      ],
      [
        "C",
        "O"
      ],
      [
        "Ġnh",
        "Ã¢n"
      ],
      [
        "áº¯",
        "p"
      ],
      [
        "Ġchuy",
        "á»ĥn"
      ],
      [
        "Ġ",
        "&"
      ],
      [
        "Ã¢",
        "m"
      ],
      [
        "e",
        "o"
      ],
      [
        "Ġ",
        "R"
      ],
      [
        "Ġkh",
        "ÃŃ"
      ],
      [
        "e",
        "m"
      ],
      [
        "ĠH",
        "o"
      ],
      [
        "Æ",
        "¯"
      ],
      [
        "00",
        "0"
      ],
      [
        "Ġt",
        "áº£i"
      ],
      [
        "á»ĳ",
        "i"
      ],
      [
        "i",
        "a"
      ],
      [
        "uy",
        "Ãªn"
      ],
      [
        "Ŀ",
        "i"
      ],
      [
        "Ġvá»",
        "ĭ"
      ],
      [
        "Ã",
        "Ģ"
      ],
      [
        "áº¡",
        "ch"
      ],
      [
        "Ġv",
        "áºŃt"
      ],
      [
        "t",
        "h"
      ],
      [
        "Æ°",
        "u"
      ],
      [
        "Ġlá»",
        "ĭch"
      ],
      [
        "Äĥ",
        "n"
      ],
      [
        "Ġlá»",
        "Ľ"
      ],
      [
        "ĠT",
        "há»"
      ],
      [
        "ĠÄĳ",
        "Ã£"
      ],
      [
        "ĠÄĳ",
        "áº¡i"
      ],
      [
        "ĠÄĳ",
        "á»"
      ],
      [
        "Ġb",
        "áº¥t"
      ],
      [
        "Ġ2",
        "00"
      ],
      [
        "ä",
        "¸"
      ],
      [
        "Ġkho",
        "Ã¡n"
      ],
      [
        "Ġlá»Ľ",
        "n"
      ],
      [
        "iá»ĥ",
        "m"
      ],
      [
        "ĠÄĲ",
        "áº§u"
      ],
      [
        "Ġnh",
        "iá»ģu"
      ],
      [
        "ã",
        "Ĥ"
      ],
      [
        "Ġh",
        "Ã¬nh"
      ],
      [
        "Ġs",
        "uáº¥t"
      ],
      [
        "ģ",
        "m"
      ],
      [
        "Ġc",
        "Æ¡"
      ],
      [
        "i",
        "ng"
      ],
      [
        "ī",
        "nh"
      ],
      [
        "Ġmá»",
        "ģm"
      ],
      [
        "á»Ĩ",
        "T"
      ],
      [
        "Ġm",
        "ang"
      ],
      [
        "ï",
        "¼"
      ],
      [
        "i",
        "c"
      ],
      [
        "C",
        "H"
      ],
      [
        "Ġt",
        "á»ķng"
      ],
      [
        "Ġnghiá»ĩ",
        "m"
      ],
      [
        "Æ°á»Ŀ",
        "i"
      ],
      [
        "Ġch",
        "áº¿"
      ],
      [
        "ĠVá»",
        "Ľi"
      ],
      [
        "ĠN",
        "AM"
      ],
      [
        "á»Ļ",
        "ng"
      ],
      [
        "á»ķ",
        "i"
      ],
      [
        "Ġvá»",
        "ģ"
      ],
      [
        "Ġtrá»",
        "±c"
      ],
      [
        "ĠÄĳ",
        "oÃłn"
      ],
      [
        "Ã²",
        "n"
      ],
      [
        "Ġkáº¿",
        "t"
      ],
      [
        "Ã¢",
        "u"
      ],
      [
        "â",
        "Ģ"
      ],
      [
        "áº¡",
        "n"
      ],
      [
        "Ġqu",
        "an"
      ],
      [
        "Ġng",
        "Æ°á»Ŀi"
      ],
      [
        "o",
        "l"
      ],
      [
        "Ġkh",
        "ai"
      ],
      [
        "ĠX",
        "Ã¢y"
      ],
      [
        "i",
        "m"
      ],
      [
        "Ġb",
        "iáº¿n"
      ],
      [
        "a",
        "c"
      ],
      [
        "Ġt",
        "Ãłi"
      ],
      [
        "áº",
        "±"
      ],
      [
        "Ġlo",
        "áº¡i"
      ],
      [
        "Ġt",
        "uy"
      ],
      [
        "o",
        "u"
      ],
      [
        "Ġthá»",
        "§y"
      ],
      [
        "o",
        "m"
      ],
      [
        "ĠÄĳ",
        "á»ĵng"
      ],
      [
        "Ġd",
        "áº¡ng"
      ],
      [
        "Ġkh",
        "Ã´ng"
      ],
      [
        "ĠTh",
        "Æ°Æ¡ng"
      ],
      [
        "Ġsá»",
        "±"
      ],
      [
        "áº¯",
        "c"
      ],
      [
        "Ġth",
        "eo"
      ],
      [
        "i",
        "t"
      ],
      [
        "Ġdá»¥",
        "c"
      ],
      [
        "ĠÄĳ",
        "Æ¡n"
      ],
      [
        "ãĢ",
        "ģ"
      ],
      [
        "Ġth",
        "Ã¢n"
      ],
      [
        "Ġv",
        "iÃªn"
      ],
      [
        "Ã©",
        "p"
      ],
      [
        "ĠVI",
        "á»ĨT"
      ],
      [
        "Ġh",
        "Æ¡n"
      ],
      [
        "ĠS",
        "á»"
      ],
      [
        "Ġd",
        "áº§u"
      ],
      [
        "Ġd",
        "u"
      ],
      [
        "Ġg",
        "iá»"
      ],
      [
        "ĠB",
        "Ã¬nh"
      ],
      [
        "Ġt",
        "áº§"
      ],
      [
        "Ġl",
        "iÃªn"
      ],
      [
        "a",
        "s"
      ],
      [
        "Ġth",
        "i"
      ],
      [
        "Ġ",
        "O"
      ],
      [
        "e",
        "l"
      ],
      [
        "o",
        "Ãłi"
      ],
      [
        "ĠQu",
        "á»ĳc"
      ],
      [
        "Ġl",
        "áº¯p"
      ],
      [
        "e",
        "b"
      ],
      [
        "Ġ",
        "0"
      ],
      [
        "Ġgi",
        "Ã¡"
      ],
      [
        "Å",
        "©ng"
      ],
      [
        "Ġs",
        "inh"
      ],
      [
        "Ġk",
        "iá»ĩn"
      ],
      [
        "Ġt",
        "iá»ģn"
      ],
      [
        "Ġ",
        "W"
      ],
      [
        "Ġtá»",
        "īnh"
      ],
      [
        "ĠNh",
        "Ãł"
      ],
      [
        "Ġd",
        "iá»ĩn"
      ],
      [
        "Ġd",
        "Ã¹ng"
      ],
      [
        "ĠA",
        "n"
      ],
      [
        "Ġqu",
        "áº£"
      ],
      [
        "Ġnhá»",
        "¯ng"
      ],
      [
        "Ġqu",
        "a"
      ],
      [
        "Ġb",
        "Ã¡n"
      ],
      [
        "Ġnh",
        "áºŃp"
      ],
      [
        "Ġt",
        "ÃŃch"
      ],
      [
        "ĠC",
        "ÃĶNG"
      ],
      [
        "Ġthu",
        "áºŃt"
      ],
      [
        "áº£",
        "m"
      ],
      [
        "ĠTr",
        "ung"
      ],
      [
        "Ġt",
        "Ã¡c"
      ],
      [
        "Ã´",
        "i"
      ],
      [
        "ĠPh",
        "Ã¡t"
      ],
      [
        "Ġr",
        "a"
      ],
      [
        "ĠN",
        "G"
      ],
      [
        "Ġtá»",
        "ĳ"
      ],
      [
        "ĠC",
        "há»"
      ],
      [
        "ï¼",
        "Į"
      ],
      [
        "Ġtáº§",
        "ng"
      ],
      [
        "Ã³",
        "c"
      ],
      [
        "Ġ",
        "Y"
      ],
      [
        "Ġ",
        "5"
      ],
      [
        "Ãł",
        "u"
      ],
      [
        "Ġ1",
        "9"
      ],
      [
        "áº",
        "»"
      ],
      [
        "Ġtrá»",
        "¥"
      ],
      [
        "Ń",
        "a"
      ],
      [
        "ti",
        "c"
      ],
      [
        "Ġt",
        "áº£ng"
      ],
      [
        "Ġn",
        "á»Ļi"
      ],
      [
        "Ã³",
        "ng"
      ],
      [
        "Ġd",
        "Ã¢n"
      ],
      [
        "Ġq",
        "uy"
      ],
      [
        "ĠÄĳ",
        "Ã¡p"
      ],
      [
        "ĠÄĳ",
        "Æ°á»Ŀng"
      ],
      [
        "Ġth",
        "am"
      ],
      [
        "Ġk",
        "á»¹"
      ],
      [
        "Ġt",
        "iáº¿"
      ],
      [
        "áº",
        "ł"
      ],
      [
        "p",
        "h"
      ],
      [
        "Ġch",
        "u"
      ],
      [
        "á»",
        "Ĺ"
      ],
      [
        "Ġ",
        "w"
      ],
      [
        "Ġlá»",
        "±c"
      ],
      [
        "Ġyáº¿",
        "u"
      ],
      [
        "Ġtuy",
        "áº¿n"
      ],
      [
        "ĠC",
        "Ã¡c"
      ],
      [
        "Ġph",
        "Ã²ng"
      ],
      [
        "¯",
        "u"
      ],
      [
        "ai",
        "l"
      ],
      [
        "Ġtr",
        "ÃŃ"
      ],
      [
        "Ġhá»",
        "Ļ"
      ],
      [
        "ti",
        "on"
      ],
      [
        "Ġth",
        "Ã¡c"
      ],
      [
        "á»Ļ",
        "c"
      ],
      [
        "áº¡",
        "nh"
      ],
      [
        "ĠN",
        "inh"
      ],
      [
        "ħ",
        "n"
      ],
      [
        "ĠTh",
        "Ãłnh"
      ],
      [
        "Ġgi",
        "Ã¡o"
      ],
      [
        "Ġkh",
        "Ã¡c"
      ],
      [
        "Ġ",
        "an"
      ],
      [
        "ĠÄĳ",
        "á»ķi"
      ],
      [
        "Ġ",
        "âĢ"
      ],
      [
        "ĠÄĲ",
        "Ãł"
      ],
      [
        "Ġn",
        "á»ģn"
      ],
      [
        "iÃª",
        "m"
      ],
      [
        "Ã¡",
        "nh"
      ],
      [
        "ĠT",
        "R"
      ],
      [
        "Æ°á»Ľ",
        "ng"
      ],
      [
        "ĠA",
        "I"
      ],
      [
        "Ġ2",
        "01"
      ],
      [
        "ĠÄĳá»ĭ",
        "a"
      ],
      [
        ")",
        ","
      ],
      [
        "Ġx",
        "e"
      ],
      [
        "Ġhá»",
        "¯u"
      ],
      [
        "ĠB",
        "áº¯c"
      ],
      [
        "ĠT",
        "á»ķng"
      ],
      [
        "ĠU",
        "P"
      ],
      [
        "CO",
        "M"
      ],
      [
        "l",
        "e"
      ],
      [
        "ĠÄĲ",
        "á»ĵng"
      ],
      [
        "ĠÄĳ",
        "Ãło"
      ],
      [
        "Ġ",
        "4"
      ],
      [
        "ĠT",
        "áºŃp"
      ],
      [
        "Ġc",
        "Ã¹ng"
      ],
      [
        "Ġc",
        "Å©ng"
      ],
      [
        "£",
        "i"
      ],
      [
        "tic",
        "s"
      ],
      [
        "Ãº",
        "p"
      ],
      [
        "ĠChá»",
        "©ng"
      ],
      [
        "Ġchá»",
        "©c"
      ],
      [
        "áº",
        "¢"
      ],
      [
        "Ġtrá»",
        "į"
      ],
      [
        "Ġh",
        "Æ°á»Ľng"
      ],
      [
        "Ġtr",
        "uyá»ģn"
      ],
      [
        "Ãº",
        "c"
      ],
      [
        "r",
        "e"
      ],
      [
        "iá»",
        "ħn"
      ],
      [
        "Ġgi",
        "Ãºp"
      ],
      [
        "å",
        "ħ"
      ],
      [
        "g",
        "is"
      ],
      [
        "Ã",
        "Ĥ"
      ],
      [
        "u",
        "s"
      ],
      [
        "Ġt",
        "Ã¢m"
      ],
      [
        "2",
        "01"
      ],
      [
        "Ġ",
        "in"
      ],
      [
        "Ä",
        "ĳ"
      ],
      [
        "Ġthá»",
        "Ŀi"
      ],
      [
        ".",
        "."
      ],
      [
        "ĠH",
        "áº£i"
      ],
      [
        "E",
        "R"
      ],
      [
        "Ġtr",
        "ang"
      ],
      [
        "ĠNG",
        "H"
      ],
      [
        "en",
        "t"
      ],
      [
        "Ġc",
        "áº£"
      ],
      [
        "gis",
        "tics"
      ],
      [
        "Ġyáº¿",
        "t"
      ],
      [
        "Ġt",
        "áº¥n"
      ],
      [
        "Ġn",
        "iÃªm"
      ],
      [
        "à",
        "¸"
      ],
      [
        "Ġc",
        "Ã²n"
      ],
      [
        "ĠÄĳá»",
        "ĥ"
      ],
      [
        "a",
        "u"
      ],
      [
        "Ġ",
        "em"
      ],
      [
        "æ",
        "ľ"
      ],
      [
        "l",
        "o"
      ],
      [
        "ĠâĢ",
        "ĵ"
      ],
      [
        "Ġn",
        "Ã´ng"
      ],
      [
        "áº·",
        "c"
      ],
      [
        "±",
        "a"
      ],
      [
        "ĠÄĳ",
        "áº·t"
      ],
      [
        "Ġchá»",
        "©ng"
      ],
      [
        "ĠSá»",
        "Ł"
      ],
      [
        "ĠUP",
        "COM"
      ],
      [
        "áº©",
        "n"
      ],
      [
        "Æ",
        "ł"
      ],
      [
        "O",
        "N"
      ],
      [
        "S",
        "E"
      ],
      [
        "n",
        "Äĥm"
      ],
      [
        "å",
        "ı"
      ],
      [
        "Ġh",
        "áº¡"
      ],
      [
        "¯",
        "a"
      ],
      [
        "áº",
        "µ"
      ],
      [
        "a",
        "t"
      ],
      [
        "ĠÄĳá»ĭ",
        "nh"
      ],
      [
        "s",
        "i"
      ],
      [
        "Å",
        "©"
      ],
      [
        "Ġr",
        "á»Ļng"
      ],
      [
        "Ġc",
        "Ã¡"
      ],
      [
        "Ãł",
        "ng"
      ],
      [
        "ĠGi",
        "ao"
      ],
      [
        "Ġgiá»",
        "Ľi"
      ],
      [
        "ĠV",
        "i"
      ],
      [
        "Ġt",
        "o"
      ],
      [
        "u",
        "p"
      ],
      [
        "ĠlÃł",
        "m"
      ],
      [
        "Ã²",
        "a"
      ],
      [
        "Ġtá»",
        "±"
      ],
      [
        "N",
        "T"
      ],
      [
        "Ã¢",
        "ng"
      ],
      [
        "ĠmÃ´",
        "i"
      ],
      [
        "s",
        "áº£n"
      ],
      [
        "Ġth",
        "Ã¡ng"
      ],
      [
        "T",
        "I"
      ],
      [
        "Ġw",
        "eb"
      ],
      [
        "i",
        "g"
      ],
      [
        "Ġ",
        "ì"
      ],
      [
        "Ġn",
        "Ã¢ng"
      ],
      [
        "Æ°á»",
        "Ł"
      ],
      [
        "ti",
        "ng"
      ],
      [
        "a",
        "p"
      ],
      [
        "Ġthá»",
        "ĥ"
      ],
      [
        "Ġs",
        "áº¡n"
      ],
      [
        "Ã£",
        "i"
      ],
      [
        "Ġ",
        "Æ°u"
      ],
      [
        "Ġt",
        "Ã´"
      ],
      [
        "Ġtrá»",
        "ĭ"
      ],
      [
        "t",
        "r"
      ],
      [
        "Ġt",
        "á»ķ"
      ],
      [
        "Æ°á»Ł",
        "ng"
      ],
      [
        "ä",
        "º"
      ],
      [
        "2",
        "0"
      ],
      [
        "á»ĳ",
        "ng"
      ],
      [
        "ĠÄĳ",
        "áº¡t"
      ],
      [
        "Ġg",
        "Ã³"
      ],
      [
        "Ġá»",
        "Ł"
      ],
      [
        "Ġv",
        "Äĥn"
      ],
      [
        "A",
        "N"
      ],
      [
        "c",
        "Ã´ng"
      ],
      [
        "Ġnh",
        "áº¥t"
      ],
      [
        "Ġchu",
        "áº©n"
      ],
      [
        "á»",
        "ĭch"
      ],
      [
        "áºµ",
        "ng"
      ],
      [
        "Ġphá»",
        "¥"
      ],
      [
        "ĠN",
        "áºµng"
      ],
      [
        "Ġs",
        "ang"
      ],
      [
        "ĠÄĳ",
        "ang"
      ],
      [
        "ĠV",
        "ÃĢ"
      ],
      [
        "ĠÄĲ",
        "Ã´ng"
      ],
      [
        "Ġph",
        "ÃŃ"
      ],
      [
        "Ġk",
        "há»"
      ],
      [
        "Ġm",
        "áº·t"
      ],
      [
        "Ġthu",
        "á»Ļc"
      ],
      [
        "Ġm",
        "inh"
      ],
      [
        "E",
        "T"
      ],
      [
        "a",
        "d"
      ],
      [
        "ĠG",
        "I"
      ],
      [
        "i",
        "l"
      ],
      [
        "o",
        "o"
      ],
      [
        "e",
        "c"
      ],
      [
        "Ġthu",
        "Ãª"
      ],
      [
        "ĠH",
        "á»"
      ],
      [
        "Ġth",
        "Ã©p"
      ],
      [
        "ĠI",
        "n"
      ],
      [
        "ĠM",
        "á»¹"
      ],
      [
        "áº±",
        "ng"
      ],
      [
        "Ġvá»",
        "¯ng"
      ],
      [
        ")",
        "."
      ],
      [
        "ä",
        "»"
      ],
      [
        "A",
        "R"
      ],
      [
        "ĠÄĳ",
        "Ã´"
      ],
      [
        "g",
        "i"
      ],
      [
        "Ġ",
        "Ãģ"
      ],
      [
        "ĠQu",
        "áº£ng"
      ],
      [
        "Æ¯",
        "Æł"
      ],
      [
        "Ġt",
        "ÃŃnh"
      ],
      [
        "áºł",
        "I"
      ],
      [
        "Æ¯Æł",
        "NG"
      ],
      [
        "ĠL",
        "ong"
      ],
      [
        "Ġtá»ĳ",
        "i"
      ],
      [
        "Æ¡",
        "i"
      ],
      [
        "H",
        "O"
      ],
      [
        "áº",
        "¤"
      ],
      [
        "Æ°á»",
        "Ľi"
      ],
      [
        "I",
        "N"
      ],
      [
        "ĠÄĳ",
        "áº£m"
      ],
      [
        "Ġtrá»į",
        "ng"
      ],
      [
        "Ġth",
        "áº¿"
      ],
      [
        "Ã´",
        "n"
      ],
      [
        "Ġb",
        "á»ģn"
      ],
      [
        "á»ĵ",
        "n"
      ],
      [
        "ĠTh",
        "Ã¡i"
      ],
      [
        "å",
        "Ĭ"
      ],
      [
        "ĠPh",
        "Ã²ng"
      ],
      [
        "Ġd",
        "i"
      ],
      [
        "á»",
        "Ń"
      ],
      [
        "Ġsá»",
        "©c"
      ],
      [
        "Ġm",
        "iá»ģn"
      ],
      [
        "Ġt",
        "iÃªn"
      ],
      [
        "áº¥",
        "y"
      ],
      [
        "áº±",
        "m"
      ],
      [
        "áº¡",
        "m"
      ],
      [
        "iáº¿",
        "m"
      ],
      [
        "ĠPh",
        "Ãº"
      ],
      [
        "Ġhá»Ļ",
        "i"
      ],
      [
        "ĠNGH",
        "á»Ĩ"
      ],
      [
        "Ġlá»",
        "£i"
      ],
      [
        "ĠNh",
        "áºŃt"
      ],
      [
        "áº",
        "«"
      ],
      [
        "Ġd",
        "Ã¢y"
      ],
      [
        "Ġd",
        "Æ°á»£c"
      ],
      [
        "å",
        "¤"
      ],
      [
        "Ġng",
        "oÃłi"
      ],
      [
        "Ġem",
        "ail"
      ],
      [
        "Ġng",
        "uyÃªn"
      ],
      [
        "e",
        "d"
      ],
      [
        "Ġ",
        "J"
      ],
      [
        "Ġt",
        "u"
      ],
      [
        "Ġnh",
        "áºŃn"
      ],
      [
        "Ġs",
        "Ã³c"
      ],
      [
        "Ġch",
        "i"
      ],
      [
        "ÃŃ",
        "n"
      ],
      [
        "i",
        "d"
      ],
      [
        "Ġm",
        "ay"
      ],
      [
        "Ġng",
        "Ãły"
      ],
      [
        "I",
        "á»Ĩ"
      ],
      [
        "Ġtr",
        "iá»ĩu"
      ],
      [
        "ĠS",
        "Æ¡n"
      ],
      [
        "ĠÄĲ",
        "á»"
      ],
      [
        "Ġs",
        "Ã¡ng"
      ],
      [
        "ĠÄĳá»Ļ",
        "i"
      ],
      [
        "Ġ1",
        "0"
      ],
      [
        "ou",
        "r"
      ],
      [
        "Ġmá»",
        "Ľi"
      ],
      [
        "ĠÄĳ",
        "Ã¡"
      ],
      [
        "Ġm",
        "áº¡ng"
      ],
      [
        "d",
        "á»ĭch"
      ],
      [
        "ĠÄĳ",
        "á»ĵ"
      ],
      [
        "ĠT",
        "Ã¢y"
      ],
      [
        "áº",
        "¹"
      ],
      [
        "u",
        "a"
      ],
      [
        "ĠB",
        "áº£n"
      ],
      [
        "Ġ",
        "6"
      ],
      [
        "Ĭ",
        "CH"
      ],
      [
        "Ġb",
        "iá»ĥn"
      ],
      [
        "A",
        "L"
      ],
      [
        "á»ĩ",
        "n"
      ],
      [
        "T",
        "E"
      ],
      [
        "Ġth",
        "áº¥t"
      ],
      [
        "ĠKh",
        "u"
      ],
      [
        "Ġb",
        "Ãłn"
      ],
      [
        "ĠNg",
        "uyÃªn"
      ],
      [
        "t",
        "er"
      ],
      [
        "Ġnhá»",
        "±a"
      ],
      [
        "å",
        "®"
      ],
      [
        "©",
        "u"
      ],
      [
        "O",
        "L"
      ],
      [
        "áº",
        "¾"
      ],
      [
        "a",
        "g"
      ],
      [
        "Ġtr",
        "áº£i"
      ],
      [
        "Ġb",
        "á»Ļ"
      ],
      [
        "ĠÄĳ",
        "iá»ģu"
      ],
      [
        "Ġvá»",
        "ĩ"
      ],
      [
        "ar",
        "k"
      ],
      [
        "-",
        "-"
      ],
      [
        "ãĢ",
        "Ĥ"
      ],
      [
        "Ġc",
        "Æ°"
      ],
      [
        "Ġc",
        "on"
      ],
      [
        "a",
        "tion"
      ],
      [
        "Ġcá»",
        "©u"
      ],
      [
        "in",
        "e"
      ],
      [
        "Ġc",
        "Ã¡o"
      ],
      [
        "Ġtiáº¿",
        "p"
      ],
      [
        "Ġb",
        "áº±ng"
      ],
      [
        "ĠL",
        "á»"
      ],
      [
        "si",
        "te"
      ],
      [
        "Ãº",
        "ng"
      ],
      [
        "d",
        "u"
      ],
      [
        "Ġc",
        "am"
      ],
      [
        "ĠÄĲ",
        "iá»ĩn"
      ],
      [
        "ĠÄĳ",
        "á»ĳi"
      ],
      [
        "Ġng",
        "Å©"
      ],
      [
        "Ġ2",
        "0"
      ],
      [
        "Ġto",
        "Ã¡n"
      ],
      [
        "ĠÄĳ",
        "Ã³"
      ],
      [
        "áº¯",
        "t"
      ],
      [
        "Ġt",
        "iá»ĩn"
      ],
      [
        "Ġm",
        "Äĥng"
      ],
      [
        "Ġkho",
        "a"
      ],
      [
        "Ġlo",
        "gistics"
      ],
      [
        "ĠCh",
        "Ã¢u"
      ],
      [
        "u",
        "n"
      ],
      [
        "ĠD",
        "Æ°Æ¡ng"
      ],
      [
        "A",
        "I"
      ],
      [
        "ĠT",
        "Æ°"
      ],
      [
        "ĠT",
        "á»"
      ],
      [
        "ĠTr",
        "ang"
      ],
      [
        "Ġnh",
        "áº±m"
      ],
      [
        "Ġs",
        "u"
      ],
      [
        "Ġt",
        "Ãłu"
      ],
      [
        "ĠÄ",
        "ĥn"
      ],
      [
        "ĠTH",
        "Æ¯ÆłNG"
      ],
      [
        "ĠVi",
        "et"
      ],
      [
        "Ġch",
        "Äĥm"
      ],
      [
        "Ġcá»",
        "¥"
      ],
      [
        "E",
        "S"
      ],
      [
        "ĠNg",
        "oÃłi"
      ],
      [
        "Ġkhá»",
        "ı"
      ],
      [
        "V",
        "I"
      ],
      [
        "Ġsá»",
        "Ń"
      ],
      [
        "Ġn",
        "á»ĳi"
      ],
      [
        "e",
        "x"
      ],
      [
        "ĠM",
        "áºłI"
      ],
      [
        "a",
        "b"
      ],
      [
        "ĠC",
        "H"
      ],
      [
        "æ",
        "ĸ"
      ],
      [
        "Ġb",
        "áº£n"
      ],
      [
        "¡",
        "ng"
      ],
      [
        "áº",
        "¬"
      ],
      [
        "Æ°á»",
        "¡ng"
      ],
      [
        "Ġkhá»ı",
        "e"
      ],
      [
        "R",
        "O"
      ],
      [
        "ro",
        "up"
      ],
      [
        "ç",
        "Ķ"
      ],
      [
        "Ġh",
        "iá»ĥm"
      ],
      [
        "Ġph",
        "Æ°Æ¡ng"
      ],
      [
        "Ġl",
        "Æ°u"
      ],
      [
        "a",
        "in"
      ],
      [
        "Ġs",
        "áº¡ch"
      ],
      [
        "Ġ",
        "Ã´"
      ],
      [
        "ĠL",
        "o"
      ],
      [
        "u",
        "á»ĵn"
      ],
      [
        "ĠGi",
        "áº£i"
      ],
      [
        "ĠT",
        "Æ¯"
      ],
      [
        "ç",
        "ļ"
      ],
      [
        "Ġb",
        "iá»ĩt"
      ],
      [
        "ĠA",
        "nh"
      ],
      [
        "D",
        "I"
      ],
      [
        "C",
        "M"
      ],
      [
        "Ġ",
        "7"
      ],
      [
        "çļ",
        "Ħ"
      ],
      [
        "Ġl",
        "áº¡i"
      ],
      [
        "Ġmá»",
        "¥c"
      ],
      [
        "u",
        "r"
      ],
      [
        "Ġb",
        "Ã¬"
      ],
      [
        ";",
        "--"
      ],
      [
        "Ġt",
        "ÃŃn"
      ],
      [
        "o",
        "p"
      ],
      [
        "Ġtiáº¿",
        "ng"
      ],
      [
        "áº¡",
        "c"
      ],
      [
        "iá»ĥ",
        "u"
      ],
      [
        "ĠN",
        "ai"
      ],
      [
        "ĠDá»",
        "ĬCH"
      ],
      [
        "Ġc",
        "áºŃn"
      ],
      [
        "Ġng",
        "uá»ĵn"
      ],
      [
        "Ġcá»",
        "Ńa"
      ],
      [
        "Ġd",
        "Æ°á»¡ng"
      ],
      [
        "Ġmá»",
        "¹"
      ],
      [
        "ĠVá»",
        "¤"
      ],
      [
        "áº«",
        "n"
      ],
      [
        "ĠH",
        "Ã²a"
      ],
      [
        "ĠÄĳ",
        "iá»ĥm"
      ],
      [
        "q",
        "u"
      ],
      [
        "ĠD",
        "áº§u"
      ],
      [
        "ĠG",
        "roup"
      ],
      [
        "ĠcÃ¡c",
        "h"
      ],
      [
        "ĠHo",
        "áº¡t"
      ],
      [
        "n",
        "am"
      ],
      [
        "ç",
        "®"
      ],
      [
        "Ġc",
        "áº¡nh"
      ],
      [
        "uy",
        "á»ĩn"
      ],
      [
        "Ġthu",
        "á»ĳc"
      ],
      [
        "ĠN",
        "H"
      ],
      [
        "ĠS",
        "Ãłi"
      ],
      [
        "e",
        "ch"
      ],
      [
        "Ġt",
        "iáº¿n"
      ],
      [
        "ĠÄĳ",
        "Ã³ng"
      ],
      [
        "Ġth",
        "o"
      ],
      [
        "Ġs",
        "Ãłn"
      ],
      [
        "ĠM",
        "á»"
      ],
      [
        "Ġb",
        "á»"
      ],
      [
        "ĠB",
        "áº¥t"
      ],
      [
        "Ġx",
        "Äĥng"
      ],
      [
        "th",
        "iáº¿t"
      ],
      [
        "ĠDá»",
        "±"
      ],
      [
        "Ġs",
        "Ã¡ch"
      ],
      [
        "Ġgi",
        "an"
      ],
      [
        "ĠÄĳ",
        "áº·c"
      ],
      [
        "e",
        "ting"
      ],
      [
        "Ã",
        "¨"
      ],
      [
        "ĠG",
        "Ã²n"
      ],
      [
        "ĠPH",
        "Ãģ"
      ],
      [
        "Ġ",
        "9"
      ],
      [
        "ark",
        "eting"
      ],
      [
        "Ġm",
        "ua"
      ],
      [
        "ĳ",
        "n"
      ],
      [
        "Ġl",
        "áº»"
      ],
      [
        "há»",
        "ĩ"
      ],
      [
        "o",
        "t"
      ],
      [
        "ĠNg",
        "Ãły"
      ],
      [
        "ĠC",
        "P"
      ],
      [
        "x",
        "Ã¢y"
      ],
      [
        "Ġc",
        "á»Ļng"
      ],
      [
        "áº¥",
        "u"
      ],
      [
        "é",
        "Ĥ"
      ],
      [
        "Ġvá»",
        "ĳn"
      ],
      [
        "Ġchá»",
        "¯a"
      ],
      [
        "Ġg",
        "á»Ĺ"
      ],
      [
        "Ã",
        "Ĭ"
      ],
      [
        "O",
        "R"
      ],
      [
        "Ġ",
        "f"
      ],
      [
        "ĠgÃ³",
        "i"
      ],
      [
        "áº§",
        "m"
      ],
      [
        "ĠTh",
        "iáº¿t"
      ],
      [
        "Ġd",
        "áº«n"
      ],
      [
        "Ġch",
        "iáº¿n"
      ],
      [
        "Ġweb",
        "site"
      ],
      [
        "Ġnh",
        "anh"
      ],
      [
        "an",
        "d"
      ],
      [
        "ĠThá»",
        "§y"
      ],
      [
        "Ġx",
        "Ã£"
      ],
      [
        "Ġc",
        "áº£ng"
      ],
      [
        "Æ°",
        "ng"
      ],
      [
        "Ġm",
        "áºŃt"
      ],
      [
        "Ã¬",
        "m"
      ],
      [
        "áº¦",
        "U"
      ],
      [
        "éĤ",
        "®"
      ],
      [
        "ĠL",
        "iÃªn"
      ],
      [
        "ĩ",
        "t"
      ],
      [
        "t",
        "s"
      ],
      [
        "Ġk",
        "im"
      ],
      [
        "es",
        "s"
      ],
      [
        "ĠÄĲ",
        "á»ĭ"
      ],
      [
        "Ġmá»",
        "Ł"
      ],
      [
        "Ġqu",
        "áº£ng"
      ],
      [
        "a",
        "v"
      ],
      [
        "Ġkho",
        "áº£ng"
      ],
      [
        "Ġl",
        "Æ°á»Ľi"
      ],
      [
        "Ġngh",
        "iÃªn"
      ],
      [
        "HO",
        "SE"
      ],
      [
        "H",
        "N"
      ],
      [
        "Ġk",
        "iá»ĥm"
      ],
      [
        "..",
        "."
      ],
      [
        "Ġ",
        "8"
      ],
      [
        "Ġv",
        "iá»ħn"
      ],
      [
        ":",
        "#"
      ],
      [
        "Ġch",
        "Æ°Æ¡ng"
      ],
      [
        "Ġtá»",
        "·"
      ],
      [
        "ĠTh",
        "u"
      ],
      [
        "Ġb",
        "Ã£i"
      ],
      [
        "Ġx",
        "á»Ń"
      ],
      [
        "ĠÄĳ",
        "o"
      ],
      [
        "o",
        "w"
      ],
      [
        "Ä",
        "Ĳ"
      ],
      [
        "æ",
        "Ī"
      ],
      [
        "Ġng",
        "á»"
      ],
      [
        "ĠÄĲ",
        "áº¡i"
      ],
      [
        "Ġthá»",
        "§"
      ],
      [
        "h",
        "i"
      ],
      [
        "A",
        "S"
      ],
      [
        "E",
        "L"
      ],
      [
        "Ġk",
        "Ã½"
      ],
      [
        "ĠX",
        "uáº¥t"
      ],
      [
        "C",
        "T"
      ],
      [
        "ĠD",
        "u"
      ],
      [
        "u",
        "Ã´i"
      ],
      [
        "Ġc",
        "u"
      ],
      [
        "o",
        "f"
      ],
      [
        "Ġ",
        "ÃĤ"
      ],
      [
        "Ġx",
        "i"
      ],
      [
        "Ã£",
        "ng"
      ],
      [
        "ĠGi",
        "ang"
      ],
      [
        "ar",
        "t"
      ],
      [
        "Ġsá»ĳ",
        "ng"
      ],
      [
        "ĠN",
        "Äĥm"
      ],
      [
        "áº¤",
        "T"
      ],
      [
        "E",
        "M"
      ],
      [
        "E",
        "N"
      ],
      [
        "iáº¿",
        "u"
      ],
      [
        "Ġchá»",
        "ī"
      ],
      [
        "ĠPh",
        "áº§n"
      ],
      [
        "k",
        "h"
      ],
      [
        "ĠV",
        "áºŃn"
      ],
      [
        "Ġ19",
        "9"
      ],
      [
        "Ã¡",
        "m"
      ],
      [
        "Ġdá»",
        "¯"
      ],
      [
        "Ġnh",
        "iá»ĩt"
      ],
      [
        "Ġnh",
        "iÃªn"
      ],
      [
        "Ġt",
        "Äĥng"
      ],
      [
        "Ġ",
        "u"
      ],
      [
        "I",
        "C"
      ],
      [
        "Ãª",
        "u"
      ],
      [
        "ĠNg",
        "há»ĩ"
      ],
      [
        "Ġd",
        "ung"
      ],
      [
        "a",
        "te"
      ],
      [
        "v",
        "er"
      ],
      [
        "ĠQ",
        "U"
      ],
      [
        "Ġtrá»",
        "Ł"
      ],
      [
        "áº¿",
        "t"
      ],
      [
        "ĠS",
        "Ã´ng"
      ],
      [
        "Ã³",
        "n"
      ],
      [
        "Ġv",
        "i"
      ],
      [
        "Ġn",
        "Ãły"
      ],
      [
        "áº¢",
        "N"
      ],
      [
        "ä",
        "¼"
      ],
      [
        "t",
        "há»"
      ],
      [
        "ĠD",
        "Æ°á»£c"
      ],
      [
        "Ġt",
        "Ã¡i"
      ],
      [
        "Ġn",
        "uÃ´i"
      ],
      [
        "Ġth",
        "anh"
      ],
      [
        "c",
        "e"
      ],
      [
        "ĠC",
        "on"
      ],
      [
        "ĠViet",
        "nam"
      ],
      [
        "Ġq",
        "uyá»ģn"
      ],
      [
        "é",
        "Ģ"
      ],
      [
        "Ġ",
        "Z"
      ],
      [
        "ĵ",
        "ģ"
      ],
      [
        "ĠGi",
        "a"
      ],
      [
        "Ġ",
        "ÃŃch"
      ],
      [
        "ĠV",
        "in"
      ],
      [
        "ĠHÃł",
        "ng"
      ],
      [
        "ĠY",
        "Ãªn"
      ],
      [
        "I",
        "S"
      ],
      [
        "ĠT",
        "Ã¢n"
      ],
      [
        "Ġh",
        "áº£i"
      ],
      [
        "áº¢",
        "I"
      ],
      [
        "u",
        "m"
      ],
      [
        "ĠÄĲ",
        "áº¦U"
      ],
      [
        "Ġ",
        "ë"
      ],
      [
        "Ġl",
        "Æ°á»£c"
      ],
      [
        "á»Ĺ",
        "i"
      ],
      [
        "ĠK",
        "inh"
      ],
      [
        "Ġchuy",
        "á»ģn"
      ],
      [
        "Ġh",
        "Ã£ng"
      ],
      [
        "ĠH",
        "Æ°ng"
      ],
      [
        "Ġth",
        "Ã¡i"
      ],
      [
        "e",
        "w"
      ],
      [
        "Ġ",
        "uy"
      ],
      [
        "Ġ",
        "Ã¡p"
      ],
      [
        "Ġgi",
        "áº¥y"
      ],
      [
        "ĠD",
        "oanh"
      ],
      [
        "ä¸",
        "ļ"
      ],
      [
        "ĠÃĤ",
        "u"
      ],
      [
        "Ġl",
        "inh"
      ],
      [
        "Ġch",
        "Æ¡i"
      ],
      [
        "Ġs",
        "Ã¡t"
      ],
      [
        "ĠB",
        "á»Ļ"
      ],
      [
        "T",
        "V"
      ],
      [
        "I",
        "T"
      ],
      [
        "ĠV",
        "N"
      ],
      [
        "A",
        "T"
      ],
      [
        "å",
        "ĵģ"
      ],
      [
        "åħ",
        "¬"
      ],
      [
        "ĠC",
        "am"
      ],
      [
        "Ġm",
        "Ã³c"
      ],
      [
        "Ġl",
        "Ã¢n"
      ],
      [
        "Ġ-",
        "-"
      ],
      [
        "ç®",
        "±"
      ],
      [
        "å",
        "Ľ"
      ],
      [
        "ĠS",
        "t"
      ],
      [
        "HN",
        "X"
      ],
      [
        "ĠK",
        "H"
      ],
      [
        "Ġk",
        "á»"
      ],
      [
        "or",
        "e"
      ],
      [
        "ĠN",
        "Ã´ng"
      ],
      [
        "ĠGi",
        "Ã¡o"
      ],
      [
        "ĠThá»",
        "ĭ"
      ],
      [
        "ÃĬ",
        "N"
      ],
      [
        "Ġu",
        "á»ĳng"
      ],
      [
        "c",
        "o"
      ],
      [
        "ĠT",
        "in"
      ],
      [
        "áº¥",
        "m"
      ],
      [
        "Ġkh",
        "áº¯p"
      ],
      [
        "ĠÄĲá»",
        "©c"
      ],
      [
        "Ġk",
        "iáº¿n"
      ],
      [
        "Ġch",
        "iáº¿m"
      ],
      [
        "Ġx",
        "Æ°á»Łng"
      ],
      [
        "Ġ--",
        ">"
      ],
      [
        "ĠTh",
        "Ã´ng"
      ],
      [
        "ĠC",
        "áº£ng"
      ],
      [
        "ĠÄĳ",
        "áº¥t"
      ],
      [
        "ĠG",
        "iá»"
      ],
      [
        "Ġt",
        "Ã´ng"
      ],
      [
        "Ġch",
        "Ãºng"
      ],
      [
        "ĠM",
        "iá»ģn"
      ],
      [
        "Ġtá»",
        "©c"
      ],
      [
        "2",
        "00"
      ],
      [
        "Ġt",
        "iáº¿t"
      ],
      [
        "ĠC",
        "NT"
      ],
      [
        "iá»ĩ",
        "p"
      ],
      [
        "ĠH",
        "O"
      ],
      [
        "Ġt",
        "inh"
      ],
      [
        "Ġph",
        "ong"
      ],
      [
        "ĠH",
        "á»ĩ"
      ],
      [
        "å",
        "¹"
      ],
      [
        "ì",
        "Ŀ"
      ],
      [
        "uy",
        "á»ĥn"
      ],
      [
        "å",
        "Ī"
      ],
      [
        "ĠÄĳá»Ļ",
        "c"
      ],
      [
        "Æ¯",
        "á»"
      ],
      [
        "a",
        "k"
      ],
      [
        "Ġl",
        "u"
      ],
      [
        "Ġtrá»",
        "Ŀi"
      ],
      [
        "á»ĩ",
        "nh"
      ],
      [
        "éĤ®",
        "ç®±"
      ],
      [
        "H",
        "CM"
      ],
      [
        "Ġtu",
        "á»ĩ"
      ],
      [
        "Ġy",
        "Ãªu"
      ],
      [
        "ĠH",
        "iá»ĩn"
      ],
      [
        "Ġtrá»",
        "¯"
      ],
      [
        "ĠCNT",
        "T"
      ],
      [
        "ĠP",
        "ro"
      ],
      [
        "it",
        "al"
      ],
      [
        "Ã",
        "ļ"
      ],
      [
        "ĠC",
        "ao"
      ],
      [
        "c",
        "om"
      ],
      [
        "Ġ",
        "æ"
      ],
      [
        "ĠS",
        "áº¢N"
      ],
      [
        "I",
        "á»"
      ],
      [
        "U",
        "P"
      ],
      [
        "Ġtr",
        "áº»"
      ],
      [
        "ĠT",
        "ech"
      ],
      [
        "Ġ3",
        "0"
      ],
      [
        "it",
        "y"
      ],
      [
        "ĠgÃ³",
        "p"
      ],
      [
        "Ġdá»",
        "ĩt"
      ],
      [
        "ĠNg",
        "Ã¢n"
      ],
      [
        "o",
        "b"
      ],
      [
        "Ġx",
        "Ã¡c"
      ],
      [
        "Ġkho",
        "Ã¡ng"
      ],
      [
        "ĠH",
        "Ã³a"
      ],
      [
        "ph",
        "Ã¢n"
      ],
      [
        "A",
        "C"
      ],
      [
        "o",
        "s"
      ],
      [
        "u",
        "l"
      ],
      [
        "ĠVI",
        "ET"
      ],
      [
        "TI",
        "ON"
      ],
      [
        "M",
        "E"
      ],
      [
        "i",
        "p"
      ],
      [
        "Ġ1",
        "5"
      ],
      [
        "áº¹",
        "p"
      ],
      [
        "i",
        "r"
      ],
      [
        "Ġb",
        "ia"
      ],
      [
        "ãĥ",
        "¼"
      ],
      [
        "th",
        "Æ°Æ¡ng"
      ],
      [
        "ĠB",
        "Ãªn"
      ],
      [
        "I",
        "NH"
      ],
      [
        "å",
        "ľ"
      ],
      [
        "į",
        "i"
      ],
      [
        "Ġ1",
        "00"
      ],
      [
        "Ł",
        "i"
      ],
      [
        "Ġth",
        "iá»ĩn"
      ],
      [
        "áºŃ",
        "u"
      ],
      [
        "ĠÄĲ",
        "Ãło"
      ],
      [
        "Ġqu",
        "Ã¡"
      ],
      [
        "Ĥ",
        "N"
      ],
      [
        "Ġchu",
        "á»Ĺi"
      ],
      [
        "t",
        "Æ°"
      ],
      [
        "ĠB",
        "áº£o"
      ],
      [
        "Ġsá»",
        "Ńa"
      ],
      [
        "ĠKh",
        "o"
      ],
      [
        "x",
        "uáº¥t"
      ],
      [
        "æ",
        "ĺ"
      ],
      [
        "Ġnh",
        "au"
      ],
      [
        "Ġthu",
        "áº¿"
      ],
      [
        "áº£",
        "nh"
      ],
      [
        "Ġth",
        "áº£o"
      ],
      [
        "Ġb",
        "Ã³n"
      ],
      [
        "am",
        "e"
      ],
      [
        "es",
        "t"
      ],
      [
        "A",
        "P"
      ],
      [
        "ä",
        "½"
      ],
      [
        "ĠÄĳ",
        "Ã´ng"
      ],
      [
        "Ġhá»",
        "ĵ"
      ],
      [
        "Ġ",
        "á»ĳng"
      ],
      [
        "l",
        "ine"
      ],
      [
        "ĠC",
        "Æ¡"
      ],
      [
        "Ġm",
        "arketing"
      ],
      [
        "Ġb",
        "Ãª"
      ],
      [
        "U",
        "Y"
      ],
      [
        "c",
        "k"
      ],
      [
        "é",
        "Ļ"
      ],
      [
        "iá»ĩ",
        "m"
      ],
      [
        "P",
        "T"
      ],
      [
        "Ġd",
        "uy"
      ],
      [
        "ĠH",
        "Ãłn"
      ],
      [
        "Ġ200",
        "7"
      ],
      [
        "á»",
        "Ĳ"
      ],
      [
        "ĠÄĳ",
        "áº¹p"
      ],
      [
        "åı",
        "¸"
      ],
      [
        "N",
        "AM"
      ],
      [
        "Ġng",
        "Ã¢n"
      ],
      [
        "Ġnghá»",
        "ģ"
      ],
      [
        "Ġ1",
        "2"
      ],
      [
        "Ã",
        "µ"
      ],
      [
        "Ĺ",
        "i"
      ],
      [
        "ĠVá»",
        "¥"
      ],
      [
        "A",
        "B"
      ],
      [
        "Ġt",
        "our"
      ],
      [
        "ĠT",
        "E"
      ],
      [
        "è",
        "¿"
      ],
      [
        "or",
        "t"
      ],
      [
        "Ġtr",
        "a"
      ],
      [
        "Ġth",
        "iá»ĩu"
      ],
      [
        "Ġg",
        "áº§n"
      ],
      [
        "Ġho",
        "Ãłn"
      ],
      [
        "ĠTh",
        "anh"
      ],
      [
        "Ġr",
        "á»"
      ],
      [
        "R",
        "E"
      ],
      [
        "d",
        "ing"
      ],
      [
        "Ġv",
        "iá»ĩn"
      ],
      [
        "Ġtr",
        "Ã¬"
      ],
      [
        "Ġc",
        "Ã¢y"
      ],
      [
        "Ġk",
        "iáº¿m"
      ],
      [
        "ĠM",
        "TV"
      ],
      [
        "20",
        "2"
      ],
      [
        "C",
        "P"
      ],
      [
        "Ġb",
        "ay"
      ],
      [
        "ĠKh",
        "Ã¡ch"
      ],
      [
        "åħ¬",
        "åı¸"
      ],
      [
        "ĠGiá»",
        "Ľi"
      ],
      [
        "Ġ",
        "áº£nh"
      ],
      [
        "ĠL",
        "Ãło"
      ],
      [
        "gi",
        "áº£i"
      ],
      [
        "N",
        "A"
      ],
      [
        "ĠM",
        "áº¡i"
      ],
      [
        "Ġmá»",
        "Ĺi"
      ],
      [
        "Ġt",
        "Ã´i"
      ],
      [
        "Ġph",
        "Ã¹"
      ],
      [
        "å",
        "·"
      ],
      [
        "áº",
        "¨"
      ],
      [
        "åĬ",
        "¡"
      ],
      [
        "à",
        "¹"
      ],
      [
        "f",
        "f"
      ],
      [
        "Æ°",
        "a"
      ],
      [
        "Ġb",
        "iá»ĥu"
      ],
      [
        "áº·",
        "ng"
      ],
      [
        "O",
        "G"
      ],
      [
        "g",
        "y"
      ],
      [
        "ĠH",
        "á»Ļi"
      ],
      [
        "b",
        "áº¥t"
      ],
      [
        "ç",
        "»"
      ],
      [
        "ĠÄĲá»ĭ",
        "nh"
      ],
      [
        "u",
        "b"
      ],
      [
        "Ġtr",
        "á»ĵng"
      ],
      [
        "Ġkh",
        "áº£"
      ],
      [
        "ĠX",
        "U"
      ],
      [
        "«",
        "a"
      ],
      [
        "Ġch",
        "Ã³ng"
      ],
      [
        "å",
        "į"
      ],
      [
        "Ġ2",
        "4"
      ],
      [
        "iÃª",
        "ng"
      ],
      [
        "Ġ",
        "|"
      ],
      [
        "Ġchá»",
        "ĳng"
      ],
      [
        "å",
        "Ĳ"
      ],
      [
        "Ġs",
        "Æ¡n"
      ],
      [
        "Ġm",
        "áº·c"
      ],
      [
        "Ġtá»",
        "Ľi"
      ],
      [
        "er",
        "s"
      ],
      [
        "Ġn",
        "á»ķi"
      ],
      [
        "áº¯",
        "k"
      ],
      [
        "ĠTH",
        "á»"
      ],
      [
        "è",
        "´"
      ],
      [
        "Ġtr",
        "áº¡m"
      ],
      [
        "Ġth",
        "ao"
      ],
      [
        "ĠL",
        "Ã¢m"
      ],
      [
        "ph",
        "Ã¡t"
      ],
      [
        "1",
        "0"
      ],
      [
        "Ġt",
        "Ã¬m"
      ],
      [
        "Ġl",
        "áº¡nh"
      ],
      [
        "Ġch",
        "Ã¢u"
      ],
      [
        "ĠÄĲ",
        "Ã´"
      ],
      [
        "ãģ",
        "®"
      ],
      [
        "ĠX",
        "ÃŃ"
      ],
      [
        "ĠHo",
        "Ãłng"
      ],
      [
        "Ġ",
        "Ã¡o"
      ],
      [
        "ĠÄĳ",
        "Äĥng"
      ],
      [
        "Ġm",
        "Ã£"
      ],
      [
        "ĠS",
        "h"
      ],
      [
        "Ġho",
        "áº¡ch"
      ],
      [
        "ĠNg",
        "h"
      ],
      [
        "1",
        "2"
      ],
      [
        "m",
        "ent"
      ],
      [
        "áº",
        "½"
      ],
      [
        "U",
        "S"
      ],
      [
        "v",
        "áºŃn"
      ],
      [
        "Ġ",
        "ê"
      ],
      [
        "ĠThá»",
        "±c"
      ],
      [
        "Ġ5",
        "0"
      ],
      [
        "ĠPHÃģ",
        "T"
      ],
      [
        "u",
        "t"
      ],
      [
        "i",
        "v"
      ],
      [
        "ĠT",
        "M"
      ],
      [
        "áº¿",
        "p"
      ],
      [
        "I",
        "áº¾"
      ],
      [
        "í",
        "ķ"
      ],
      [
        "Ġc",
        "áºŃp"
      ],
      [
        "ĠC",
        "O"
      ],
      [
        "Ġph",
        "Ãª"
      ],
      [
        "201",
        "7"
      ],
      [
        "i",
        "k"
      ],
      [
        "ÄĲ",
        "T"
      ],
      [
        "Ġr",
        "iÃªng"
      ],
      [
        "T",
        "S"
      ],
      [
        "o",
        "d"
      ],
      [
        "in",
        "k"
      ],
      [
        "Ġnghá»",
        "ī"
      ],
      [
        "Ã",
        "į"
      ],
      [
        "Ġt",
        "Æ°Æ¡ng"
      ],
      [
        "Ġkh",
        "Ã¡m"
      ],
      [
        "ĠK",
        "á»¹"
      ],
      [
        "ĠXU",
        "áº¤T"
      ],
      [
        "M",
        "P"
      ],
      [
        "æ",
        "Ĭ"
      ],
      [
        "Ġnh",
        "Ã¡nh"
      ],
      [
        "ĠK",
        "á»"
      ],
      [
        "ãĤ",
        "Ĵ"
      ],
      [
        "om",
        "p"
      ],
      [
        "Ġtrá»į",
        "n"
      ],
      [
        "«",
        "ng"
      ],
      [
        "é",
        "«"
      ],
      [
        "ĠPh",
        "Ã¢n"
      ],
      [
        "ç",
        "«"
      ],
      [
        "ç",
        "½"
      ],
      [
        "Ġs",
        "Ã¢u"
      ],
      [
        "á»ĳ",
        "t"
      ],
      [
        "te",
        "l"
      ],
      [
        "Ġ200",
        "6"
      ],
      [
        "i",
        "f"
      ],
      [
        "ĠPh",
        "Ã¡p"
      ],
      [
        "Iá»Ĩ",
        "N"
      ],
      [
        "RO",
        "UP"
      ],
      [
        "C",
        "C"
      ],
      [
        "ĠT",
        "Ãłi"
      ],
      [
        "ĠP",
        "há»"
      ],
      [
        "æľ",
        "ī"
      ],
      [
        "u",
[...]
